const unsigned char g_model[] = {
  0x1c, 0x00, 0x00, 0x00, 0x54, 0x46, 0x4c, 0x33, 0x14, 0x00, 0x20, 0x00,
  0x04, 0x00, 0x08, 0x00, 0x0c, 0x00, 0x10, 0x00, 0x14, 0x00, 0x00, 0x00,
  0x18, 0x00, 0x1c, 0x00, 0x14, 0x00, 0x00, 0x00, 0x03, 0x00, 0x00, 0x00,
  0x18, 0x00, 0x00, 0x00, 0x20, 0x00, 0x00, 0x00, 0x2c, 0x01, 0x00, 0x00,
  0x20, 0x00, 0x00, 0x00, 0xd4, 0x00, 0x00, 0x00, 0x50, 0x00, 0x00, 0x00,
  0x02, 0x00, 0x00, 0x00, 0x18, 0x04, 0x00, 0x00, 0xec, 0x01, 0x00, 0x00,
  0x01, 0x00, 0x00, 0x00, 0x30, 0x01, 0x00, 0x00, 0x0d, 0x00, 0x00, 0x00,
  0xc0, 0x1b, 0x00, 0x00, 0xbc, 0x1b, 0x00, 0x00, 0xf0, 0x1a, 0x00, 0x00,
  0x78, 0x1a, 0x00, 0x00, 0x10, 0x1a, 0x00, 0x00, 0x00, 0x07, 0x00, 0x00,
  0x1c, 0x05, 0x00, 0x00, 0x78, 0x04, 0x00, 0x00, 0xa0, 0x1b, 0x00, 0x00,
  0x9c, 0x1b, 0x00, 0x00, 0x98, 0x1b, 0x00, 0x00, 0x94, 0x1b, 0x00, 0x00,
  0xb8, 0x00, 0x00, 0x00, 0x01, 0x00, 0x00, 0x00, 0x10, 0x00, 0x00, 0x00,
  0x00, 0x00, 0x0a, 0x00, 0x10, 0x00, 0x0c, 0x00, 0x08, 0x00, 0x04, 0x00,
  0x0a, 0x00, 0x00, 0x00, 0x0c, 0x00, 0x00, 0x00, 0x1c, 0x00, 0x00, 0x00,
  0x20, 0x00, 0x00, 0x00, 0x0f, 0x00, 0x00, 0x00, 0x73, 0x65, 0x72, 0x76,
  0x69, 0x6e, 0x67, 0x5f, 0x64, 0x65, 0x66, 0x61, 0x75, 0x6c, 0x74, 0x00,
  0x01, 0x00, 0x00, 0x00, 0x14, 0x00, 0x00, 0x00, 0x01, 0x00, 0x00, 0x00,
  0x24, 0x00, 0x00, 0x00, 0x08, 0x00, 0x0c, 0x00, 0x08, 0x00, 0x04, 0x00,
  0x08, 0x00, 0x00, 0x00, 0x0a, 0x00, 0x00, 0x00, 0x04, 0x00, 0x00, 0x00,
  0x07, 0x00, 0x00, 0x00, 0x64, 0x65, 0x6e, 0x73, 0x65, 0x5f, 0x32, 0x00,
  0xaa, 0xe5, 0xff, 0xff, 0x04, 0x00, 0x00, 0x00, 0x0b, 0x00, 0x00, 0x00,
  0x64, 0x65, 0x6e, 0x73, 0x65, 0x5f, 0x69, 0x6e, 0x70, 0x75, 0x74, 0x00,
  0x01, 0x00, 0x00, 0x00, 0x0c, 0x00, 0x00, 0x00, 0x08, 0x00, 0x0c, 0x00,
  0x04, 0x00, 0x08, 0x00, 0x08, 0x00, 0x00, 0x00, 0x08, 0x00, 0x00, 0x00,
  0x0c, 0x00, 0x00, 0x00, 0x13, 0x00, 0x00, 0x00, 0x6d, 0x69, 0x6e, 0x5f,
  0x72, 0x75, 0x6e, 0x74, 0x69, 0x6d, 0x65, 0x5f, 0x76, 0x65, 0x72, 0x73,
  0x69, 0x6f, 0x6e, 0x00, 0xf6, 0xe5, 0xff, 0xff, 0x04, 0x00, 0x00, 0x00,
  0x10, 0x00, 0x00, 0x00, 0x31, 0x2e, 0x35, 0x2e, 0x30, 0x00, 0x00, 0x00,
  0x00, 0x00, 0x00, 0x00, 0x00, 0x00, 0x00, 0x00, 0x0f, 0x00, 0x00, 0x00,
  0x4d, 0x4c, 0x49, 0x52, 0x20, 0x43, 0x6f, 0x6e, 0x76, 0x65, 0x72, 0x74,
  0x65, 0x64, 0x2e, 0x00, 0x00, 0x00, 0x0e, 0x00, 0x18, 0x00, 0x04, 0x00,
  0x08, 0x00, 0x0c, 0x00, 0x10, 0x00, 0x14, 0x00, 0x0e, 0x00, 0x00, 0x00,
  0x14, 0x00, 0x00, 0x00, 0x40, 0x00, 0x00, 0x00, 0x44, 0x00, 0x00, 0x00,
  0x48, 0x00, 0x00, 0x00, 0x58, 0x00, 0x00, 0x00, 0x0b, 0x00, 0x00, 0x00,
  0x20, 0x1a, 0x00, 0x00, 0xd4, 0x19, 0x00, 0x00, 0x6c, 0x19, 0x00, 0x00,
  0x04, 0x19, 0x00, 0x00, 0x8c, 0x18, 0x00, 0x00, 0x78, 0x05, 0x00, 0x00,
  0x94, 0x03, 0x00, 0x00, 0xb4, 0x02, 0x00, 0x00, 0xc0, 0x01, 0x00, 0x00,
  0x08, 0x01, 0x00, 0x00, 0x80, 0x00, 0x00, 0x00, 0x01, 0x00, 0x00, 0x00,
  0x00, 0x00, 0x00, 0x00, 0x01, 0x00, 0x00, 0x00, 0x0a, 0x00, 0x00, 0x00,
  0x04, 0x00, 0x00, 0x00, 0x38, 0x02, 0x00, 0x00, 0x68, 0x01, 0x00, 0x00,
  0xb4, 0x00, 0x00, 0x00, 0x1c, 0x00, 0x00, 0x00, 0x04, 0x00, 0x00, 0x00,
  0x6d, 0x61, 0x69, 0x6e, 0x00, 0x00, 0x0e, 0x00, 0x18, 0x00, 0x08, 0x00,
  0x0c, 0x00, 0x10, 0x00, 0x07, 0x00, 0x14, 0x00, 0x0e, 0x00, 0x00, 0x00,
  0x00, 0x00, 0x00, 0x09, 0x01, 0x00, 0x00, 0x00, 0x1c, 0x00, 0x00, 0x00,
  0x10, 0x00, 0x00, 0x00, 0x04, 0x00, 0x00, 0x00, 0xd2, 0xe6, 0xff, 0xff,
  0x00, 0x00, 0x80, 0x3f, 0x01, 0x00, 0x00, 0x00, 0x0a, 0x00, 0x00, 0x00,
  0x01, 0x00, 0x00, 0x00, 0x09, 0x00, 0x00, 0x00, 0xe4, 0xfd, 0xff, 0xff,
  0x19, 0x00, 0x00, 0x00, 0x00, 0x00, 0x00, 0x19, 0x01, 0x00, 0x00, 0x00,
  0x9c, 0xe6, 0xff, 0xff, 0x14, 0x00, 0x00, 0x00, 0x0b, 0x00, 0x00, 0x00,
  0x18, 0x00, 0x00, 0x00, 0x40, 0x00, 0x00, 0x00, 0x30, 0x00, 0x00, 0x00,
  0x02, 0x00, 0x00, 0x00, 0x01, 0x00, 0x00, 0x00, 0x02, 0x00, 0x00, 0x00,
  0x19, 0x00, 0x00, 0x00, 0x53, 0x74, 0x61, 0x74, 0x65, 0x66, 0x75, 0x6c,
  0x50, 0x61, 0x72, 0x74, 0x69, 0x74, 0x69, 0x6f, 0x6e, 0x65, 0x64, 0x43,
  0x61, 0x6c, 0x6c, 0x3a, 0x30, 0x00, 0x00, 0x00, 0x02, 0x00, 0x00, 0x00,
  0xff, 0xff, 0xff, 0xff, 0x02, 0x00, 0x00, 0x00, 0x80, 0xe6, 0xff, 0xff,
  0x5e, 0xff, 0xff, 0xff, 0x00, 0x00, 0x00, 0x08, 0x18, 0x00, 0x00, 0x00,
  0x0c, 0x00, 0x00, 0x00, 0x04, 0x00, 0x00, 0x00, 0x98, 0xe6, 0xff, 0xff,
  0x01, 0x00, 0x00, 0x00, 0x09, 0x00, 0x00, 0x00, 0x03, 0x00, 0x00, 0x00,
  0x08, 0x00, 0x00, 0x00, 0x06, 0x00, 0x00, 0x00, 0x01, 0x00, 0x00, 0x00,
  0x20, 0xe7, 0xff, 0xff, 0x14, 0x00, 0x00, 0x00, 0x0a, 0x00, 0x00, 0x00,
  0x18, 0x00, 0x00, 0x00, 0x5c, 0x00, 0x00, 0x00, 0x4c, 0x00, 0x00, 0x00,
  0x02, 0x00, 0x00, 0x00, 0x01, 0x00, 0x00, 0x00, 0x02, 0x00, 0x00, 0x00,
  0x34, 0x00, 0x00, 0x00, 0x73, 0x65, 0x71, 0x75, 0x65, 0x6e, 0x74, 0x69,
  0x61, 0x6c, 0x2f, 0x64, 0x65, 0x6e, 0x73, 0x65, 0x5f, 0x32, 0x2f, 0x4d,
  0x61, 0x74, 0x4d, 0x75, 0x6c, 0x3b, 0x73, 0x65, 0x71, 0x75, 0x65, 0x6e,
  0x74, 0x69, 0x61, 0x6c, 0x2f, 0x64, 0x65, 0x6e, 0x73, 0x65, 0x5f, 0x32,
  0x2f, 0x42, 0x69, 0x61, 0x73, 0x41, 0x64, 0x64, 0x00, 0x00, 0x00, 0x00,
  0x02, 0x00, 0x00, 0x00, 0xff, 0xff, 0xff, 0xff, 0x02, 0x00, 0x00, 0x00,
  0xf4, 0xe7, 0xff, 0xff, 0x00, 0x00, 0x0e, 0x00, 0x14, 0x00, 0x00, 0x00,
  0x08, 0x00, 0x0c, 0x00, 0x07, 0x00, 0x10, 0x00, 0x0e, 0x00, 0x00, 0x00,
  0x00, 0x00, 0x00, 0x08, 0x1c, 0x00, 0x00, 0x00, 0x10, 0x00, 0x00, 0x00,
  0x04, 0x00, 0x00, 0x00, 0x32, 0xff, 0xff, 0xff, 0x00, 0x00, 0x00, 0x01,
  0x01, 0x00, 0x00, 0x00, 0x08, 0x00, 0x00, 0x00, 0x03, 0x00, 0x00, 0x00,
  0x07, 0x00, 0x00, 0x00, 0x05, 0x00, 0x00, 0x00, 0x02, 0x00, 0x00, 0x00,
  0xd4, 0xe7, 0xff, 0xff, 0x14, 0x00, 0x00, 0x00, 0x09, 0x00, 0x00, 0x00,
  0x18, 0x00, 0x00, 0x00, 0x74, 0x00, 0x00, 0x00, 0x64, 0x00, 0x00, 0x00,
  0x02, 0x00, 0x00, 0x00, 0x01, 0x00, 0x00, 0x00, 0x0a, 0x00, 0x00, 0x00,
  0x4c, 0x00, 0x00, 0x00, 0x73, 0x65, 0x71, 0x75, 0x65, 0x6e, 0x74, 0x69,
  0x61, 0x6c, 0x2f, 0x64, 0x65, 0x6e, 0x73, 0x65, 0x5f, 0x31, 0x2f, 0x4d,
  0x61, 0x74, 0x4d, 0x75, 0x6c, 0x3b, 0x73, 0x65, 0x71, 0x75, 0x65, 0x6e,
  0x74, 0x69, 0x61, 0x6c, 0x2f, 0x64, 0x65, 0x6e, 0x73, 0x65, 0x5f, 0x31,
  0x2f, 0x52, 0x65, 0x6c, 0x75, 0x3b, 0x73, 0x65, 0x71, 0x75, 0x65, 0x6e,
  0x74, 0x69, 0x61, 0x6c, 0x2f, 0x64, 0x65, 0x6e, 0x73, 0x65, 0x5f, 0x31,
  0x2f, 0x42, 0x69, 0x61, 0x73, 0x41, 0x64, 0x64, 0x00, 0x00, 0x00, 0x00,
  0x02, 0x00, 0x00, 0x00, 0xff, 0xff, 0xff, 0xff, 0x0a, 0x00, 0x00, 0x00,
  0xc0, 0xe8, 0xff, 0xff, 0x00, 0x00, 0x0e, 0x00, 0x16, 0x00, 0x00, 0x00,
  0x08, 0x00, 0x0c, 0x00, 0x07, 0x00, 0x10, 0x00, 0x0e, 0x00, 0x00, 0x00,
  0x00, 0x00, 0x00, 0x08, 0x24, 0x00, 0x00, 0x00, 0x18, 0x00, 0x00, 0x00,
  0x0c, 0x00, 0x00, 0x00, 0x00, 0x00, 0x06, 0x00, 0x08, 0x00, 0x07, 0x00,
  0x06, 0x00, 0x00, 0x00, 0x00, 0x00, 0x00, 0x01, 0x01, 0x00, 0x00, 0x00,
  0x07, 0x00, 0x00, 0x00, 0x03, 0x00, 0x00, 0x00, 0x00, 0x00, 0x00, 0x00,
  0x04, 0x00, 0x00, 0x00, 0x03, 0x00, 0x00, 0x00, 0x0c, 0x00, 0x10, 0x00,
  0x0b, 0x00, 0x00, 0x00, 0x0c, 0x00, 0x04, 0x00, 0x0c, 0x00, 0x00, 0x00,
  0x09, 0x00, 0x00, 0x00, 0x00, 0x00, 0x00, 0x09, 0x01, 0x00, 0x00, 0x00,
  0xc4, 0xe8, 0xff, 0xff, 0x14, 0x00, 0x00, 0x00, 0x08, 0x00, 0x00, 0x00,
  0x18, 0x00, 0x00, 0x00, 0x6c, 0x00, 0x00, 0x00, 0x5c, 0x00, 0x00, 0x00,
  0x02, 0x00, 0x00, 0x00, 0x01, 0x00, 0x00, 0x00, 0x0a, 0x00, 0x00, 0x00,
  0x46, 0x00, 0x00, 0x00, 0x73, 0x65, 0x71, 0x75, 0x65, 0x6e, 0x74, 0x69,
  0x61, 0x6c, 0x2f, 0x64, 0x65, 0x6e, 0x73, 0x65, 0x2f, 0x4d, 0x61, 0x74,
  0x4d, 0x75, 0x6c, 0x3b, 0x73, 0x65, 0x71, 0x75, 0x65, 0x6e, 0x74, 0x69,
  0x61, 0x6c, 0x2f, 0x64, 0x65, 0x6e, 0x73, 0x65, 0x2f, 0x52, 0x65, 0x6c,
  0x75, 0x3b, 0x73, 0x65, 0x71, 0x75, 0x65, 0x6e, 0x74, 0x69, 0x61, 0x6c,
  0x2f, 0x64, 0x65, 0x6e, 0x73, 0x65, 0x2f, 0x42, 0x69, 0x61, 0x73, 0x41,
  0x64, 0x64, 0x00, 0x00, 0x02, 0x00, 0x00, 0x00, 0xff, 0xff, 0xff, 0xff,
  0x0a, 0x00, 0x00, 0x00, 0xd4, 0xe8, 0xff, 0xff, 0xa2, 0xe9, 0xff, 0xff,
  0x04, 0x00, 0x00, 0x00, 0x50, 0x00, 0x00, 0x00, 0xda, 0xd5, 0xc4, 0x3e,
  0xf6, 0x46, 0x3f, 0x40, 0xac, 0x4e, 0x55, 0xbe, 0x7a, 0x44, 0xbf, 0xbe,
  0xaa, 0xe6, 0x97, 0x3e, 0xed, 0x39, 0x44, 0x3f, 0x37, 0x41, 0x92, 0xbf,
  0x46, 0xa2, 0xf3, 0x3e, 0x88, 0x4e, 0x8b, 0x3f, 0x28, 0x28, 0x5d, 0x3f,
  0xbb, 0xe6, 0xce, 0x3d, 0xfc, 0x81, 0x11, 0xc0, 0x41, 0x86, 0x19, 0xbf,
  0x39, 0xe1, 0x5c, 0xbe, 0x5f, 0xc8, 0x4f, 0x3f, 0x82, 0x1e, 0x80, 0x3e,
  0x24, 0xdb, 0xb1, 0x3f, 0xe3, 0xde, 0x0e, 0xbf, 0xd9, 0xc8, 0xff, 0xbe,
  0x00, 0x55, 0xf2, 0xbe, 0xe2, 0xe9, 0xff, 0xff, 0x10, 0x00, 0x00, 0x00,
  0x07, 0x00, 0x00, 0x00, 0x14, 0x00, 0x00, 0x00, 0x30, 0x00, 0x00, 0x00,
  0x02, 0x00, 0x00, 0x00, 0x02, 0x00, 0x00, 0x00, 0x0a, 0x00, 0x00, 0x00,
  0x19, 0x00, 0x00, 0x00, 0x73, 0x65, 0x71, 0x75, 0x65, 0x6e, 0x74, 0x69,
  0x61, 0x6c, 0x2f, 0x64, 0x65, 0x6e, 0x73, 0x65, 0x5f, 0x32, 0x2f, 0x4d,
  0x61, 0x74, 0x4d, 0x75, 0x6c, 0x00, 0x00, 0x00, 0x74, 0xe9, 0xff, 0xff,
  0x42, 0xea, 0xff, 0xff, 0x04, 0x00, 0x00, 0x00, 0x90, 0x01, 0x00, 0x00,
  0xe3, 0xf5, 0x32, 0xb9, 0x74, 0xff, 0xc9, 0x38, 0xfe, 0xd5, 0x38, 0xb8,
  0x68, 0xd1, 0xf2, 0xb8, 0xb6, 0x0b, 0x9d, 0x38, 0xb2, 0x73, 0xce, 0xb9,
  0xeb, 0x3b, 0x92, 0xb9, 0x0c, 0x12, 0xdd, 0xb8, 0x16, 0x3e, 0x12, 0x39,
  0xa0, 0x4a, 0xab, 0x37, 0xb6, 0x40, 0xb0, 0xbd, 0x39, 0xa3, 0x6d, 0x3a,
  0x46, 0x59, 0xee, 0x39, 0x0f, 0xd3, 0x7c, 0x3d, 0x54, 0x50, 0x43, 0x3b,
  0xc4, 0x87, 0x9f, 0xb9, 0x46, 0x19, 0x3d, 0x3e, 0x06, 0xcb, 0x25, 0xbb,
  0xa8, 0xe8, 0x93, 0xbb, 0xe7, 0x81, 0x1a, 0x3a, 0x16, 0xb1, 0x07, 0xba,
  0x90, 0xdc, 0x99, 0x39, 0xa0, 0x96, 0x38, 0x37, 0xe0, 0xca, 0x89, 0x38,
  0xe3, 0x79, 0xf4, 0x39, 0x23, 0xc5, 0x9b, 0x39, 0xbe, 0xe8, 0x1d, 0xb8,
  0x4b, 0xfe, 0x47, 0xb9, 0x0a, 0xd4, 0x4d, 0x39, 0x50, 0x2c, 0x12, 0xb8,
  0xc7, 0x43, 0x18, 0x38, 0xae, 0x64, 0x13, 0x38, 0x33, 0xbb, 0x45, 0xb9,
  0xbf, 0x90, 0xb7, 0xb8, 0x54, 0x1b, 0x67, 0x38, 0xd8, 0xf3, 0x0a, 0x39,
  0x11, 0x62, 0xff, 0xb8, 0x3c, 0x40, 0xcb, 0x37, 0xb5, 0x06, 0xef, 0x38,
  0x52, 0x43, 0x43, 0xb9, 0x59, 0xba, 0x5e, 0x39, 0xc4, 0x3a, 0xc3, 0xb8,
  0x6f, 0x04, 0x3b, 0x39, 0x00, 0x61, 0x4f, 0xb8, 0x70, 0xe4, 0x00, 0x37,
  0xbd, 0x04, 0x0f, 0xb8, 0x22, 0x46, 0x2d, 0xb9, 0xca, 0x7b, 0x4a, 0xb8,
  0x6e, 0x46, 0x8e, 0x39, 0x7a, 0x65, 0xaf, 0xb8, 0x08, 0xfa, 0x16, 0xba,
  0x2c, 0xaf, 0xc2, 0x37, 0x3e, 0x4c, 0x98, 0xb7, 0xc9, 0x0e, 0x8a, 0xb9,
  0xd0, 0x67, 0x53, 0x38, 0xac, 0x26, 0x0e, 0xb9, 0xa0, 0x3c, 0xc3, 0xb8,
  0x3f, 0x6b, 0x12, 0xb9, 0xa1, 0x37, 0x2b, 0xba, 0x00, 0xb4, 0x01, 0xb5,
  0xf4, 0x37, 0x68, 0x3e, 0xa5, 0xf9, 0x20, 0xb9, 0x02, 0x12, 0xe7, 0x38,
  0x34, 0xfc, 0x9f, 0xb9, 0xa4, 0x65, 0x4a, 0xb9, 0x38, 0x1a, 0x83, 0xb9,
  0x7a, 0x08, 0x7d, 0xba, 0x96, 0x3d, 0xd9, 0xb8, 0xfe, 0x98, 0x35, 0x3d,
  0xc3, 0x1a, 0x0c, 0x3a, 0xd7, 0xe9, 0x94, 0xba, 0x80, 0xee, 0xd3, 0x36,
  0x40, 0xd7, 0xe9, 0x39, 0xc8, 0xda, 0x29, 0xb9, 0x5a, 0xbc, 0x33, 0x38,
  0xe4, 0xac, 0x25, 0x39, 0xa9, 0x88, 0x8b, 0x3a, 0xfe, 0x11, 0xd0, 0xb9,
  0x15, 0x42, 0x19, 0x3a, 0xcc, 0xcd, 0xbb, 0xb7, 0x3b, 0x65, 0x17, 0xbb,
  0xd4, 0x14, 0x0a, 0x3a, 0xf2, 0x1f, 0xfb, 0x39, 0xdd, 0x4d, 0xbc, 0x3a,
  0x7b, 0x9d, 0xd1, 0xb8, 0xb2, 0x0e, 0x86, 0xb9, 0xaf, 0x15, 0x4b, 0x3a,
  0xd3, 0xdc, 0xfb, 0x39, 0xab, 0xbf, 0x19, 0xbb, 0xa8, 0x95, 0x7c, 0xb7,
  0x9e, 0x70, 0xca, 0xba, 0x60, 0x99, 0x5e, 0xb7, 0x05, 0x36, 0x12, 0x39,
  0xbc, 0x8d, 0x0f, 0x3a, 0x20, 0x11, 0xa1, 0xb7, 0xb1, 0x8b, 0x4b, 0x38,
  0x3c, 0xbb, 0x07, 0x3a, 0xa1, 0x82, 0xdb, 0x39, 0xd8, 0xcf, 0x66, 0xb8,
  0x76, 0xb2, 0xb4, 0x38, 0xc2, 0xeb, 0xff, 0xff, 0x10, 0x00, 0x00, 0x00,
  0x06, 0x00, 0x00, 0x00, 0x14, 0x00, 0x00, 0x00, 0x30, 0x00, 0x00, 0x00,
  0x02, 0x00, 0x00, 0x00, 0x0a, 0x00, 0x00, 0x00, 0x0a, 0x00, 0x00, 0x00,
  0x19, 0x00, 0x00, 0x00, 0x73, 0x65, 0x71, 0x75, 0x65, 0x6e, 0x74, 0x69,
  0x61, 0x6c, 0x2f, 0x64, 0x65, 0x6e, 0x73, 0x65, 0x5f, 0x31, 0x2f, 0x4d,
  0x61, 0x74, 0x4d, 0x75, 0x6c, 0x00, 0x00, 0x00, 0x54, 0xeb, 0xff, 0xff,
  0x22, 0xec, 0xff, 0xff, 0x04, 0x00, 0x00, 0x00, 0xc0, 0x12, 0x00, 0x00,
  0x37, 0xb0, 0x66, 0x3d, 0xbc, 0x32, 0xf5, 0xbe, 0x1e, 0x81, 0x03, 0x3f,
  0xb9, 0x6b, 0x96, 0x3e, 0xdd, 0x0e, 0xd5, 0xbe, 0x02, 0xaa, 0x9c, 0x3e,
  0x4d, 0x30, 0x3b, 0x3e, 0xd3, 0x61, 0xae, 0xbe, 0xd7, 0x67, 0x15, 0xbe,
  0xd7, 0xfd, 0x89, 0xbd, 0x7b, 0x6d, 0xcc, 0xbe, 0x3b, 0x32, 0x0c, 0xbf,
  0x81, 0x53, 0xde, 0x3c, 0x13, 0x53, 0x9d, 0xbe, 0x82, 0x40, 0x4d, 0xbf,
  0x43, 0x7c, 0xbb, 0xbe, 0xef, 0x38, 0x11, 0x3f, 0x50, 0x90, 0xf3, 0xbe,
  0xfa, 0x7a, 0xab, 0xbd, 0x75, 0x91, 0x2a, 0x3f, 0x05, 0x8d, 0xe2, 0xbe,
  0xfc, 0xd2, 0x20, 0xbe, 0xfa, 0x19, 0x8a, 0x3f, 0x93, 0xbd, 0x04, 0xbf,
  0x68, 0xb8, 0xca, 0xbe, 0xc9, 0xa9, 0x94, 0x3f, 0x92, 0x4b, 0x18, 0xbf,
  0x92, 0x47, 0xc1, 0xbe, 0x5b, 0x0e, 0x4b, 0x3f, 0xcd, 0xa5, 0x51, 0xbf,
  0xa9, 0xbf, 0x31, 0xbe, 0x20, 0x19, 0x3c, 0x3e, 0xce, 0x43, 0x1f, 0xbf,
  0xdb, 0x87, 0x2c, 0x3e, 0xe6, 0xfa, 0xde, 0x3d, 0x2a, 0x99, 0x0f, 0xbf,
  0x01, 0xa5, 0xd7, 0x3d, 0x6b, 0x0d, 0x43, 0x3e, 0x82, 0x61, 0x10, 0xbe,
  0x21, 0xca, 0xa9, 0x3e, 0xab, 0xcb, 0xb4, 0x3e, 0x29, 0xb7, 0x14, 0xbe,
  0x46, 0x8c, 0x26, 0x3e, 0x41, 0x75, 0xff, 0x3e, 0x8b, 0x5a, 0x23, 0x3d,
  0x9b, 0xfc, 0x12, 0x3f, 0x81, 0x29, 0xca, 0x3e, 0x98, 0x36, 0x24, 0x3d,
  0x13, 0xcb, 0xc3, 0x3e, 0xaa, 0xba, 0x24, 0x3f, 0xb9, 0x21, 0x1c, 0xbd,
  0x10, 0x32, 0xc5, 0x3e, 0xcc, 0xb8, 0xd5, 0x3e, 0x38, 0x8f, 0x70, 0xbd,
  0x84, 0x15, 0x4e, 0xbe, 0x51, 0xd2, 0xe2, 0x3e, 0xb9, 0x0e, 0x24, 0xbe,
  0x59, 0x4e, 0x44, 0xbe, 0x95, 0x7a, 0xb6, 0x3e, 0x88, 0x8a, 0x31, 0xbe,
  0x83, 0xf6, 0xbb, 0xbe, 0x6b, 0x8f, 0x0d, 0x3a, 0x3e, 0x20, 0x25, 0xbe,
  0x09, 0x01, 0xd1, 0xbd, 0xa1, 0xfe, 0xad, 0xbd, 0x87, 0x5d, 0x72, 0xbe,
  0xd4, 0xd8, 0x23, 0xbd, 0x67, 0x90, 0xf9, 0xbd, 0x00, 0x3c, 0xb5, 0xbe,
  0x88, 0xca, 0xaa, 0x3d, 0x60, 0x97, 0xf1, 0x3d, 0x73, 0xb4, 0x03, 0x3e,
  0x8d, 0xbe, 0x0e, 0x3e, 0x53, 0xce, 0xa0, 0xbd, 0x49, 0xde, 0x9c, 0xbd,
  0xc0, 0xc5, 0xc1, 0xbd, 0x70, 0x2f, 0x50, 0xbe, 0xdf, 0x13, 0x9f, 0x3e,
  0xc0, 0x6f, 0x2f, 0x3d, 0x5f, 0x65, 0xdc, 0xbd, 0x9c, 0x61, 0xc6, 0x3e,
  0xda, 0x73, 0x44, 0xbb, 0x25, 0x4e, 0xd0, 0xbd, 0xfc, 0xa9, 0x5f, 0x3e,
  0xba, 0xfc, 0xef, 0x3c, 0xd5, 0xf7, 0xd2, 0xbe, 0xad, 0x86, 0x01, 0x3f,
  0x3d, 0x8a, 0x35, 0x3e, 0x4c, 0x56, 0xf0, 0xbc, 0x20, 0x48, 0x00, 0x3f,
  0x9d, 0xfc, 0x60, 0x3e, 0xce, 0xa0, 0x83, 0x3d, 0x13, 0x2f, 0x02, 0x3f,
  0x1e, 0x1e, 0x26, 0x3b, 0x3a, 0x5d, 0x4f, 0x3c, 0x06, 0x65, 0x34, 0x3f,
  0x00, 0xf9, 0x60, 0xbe, 0xec, 0x81, 0x79, 0x3e, 0xf8, 0xc5, 0x8a, 0x3f,
  0x58, 0xec, 0x95, 0xbb, 0x29, 0x02, 0x02, 0xbd, 0x51, 0xe9, 0x6b, 0x3f,
  0xe4, 0x0c, 0xa0, 0xbe, 0xe1, 0x78, 0x16, 0xbd, 0xc6, 0xdd, 0x83, 0x3f,
  0xc7, 0x45, 0xcf, 0xbe, 0xff, 0xbe, 0xbe, 0xbd, 0xa7, 0xb5, 0x83, 0x3f,
  0xdc, 0xcf, 0x35, 0xbe, 0xea, 0xb3, 0x74, 0xbd, 0x3c, 0x45, 0x8a, 0x3f,
  0x20, 0xcd, 0x14, 0xbe, 0xe9, 0x5f, 0x4f, 0x3e, 0x66, 0x89, 0x8a, 0x3f,
  0x1f, 0x14, 0x8d, 0xbe, 0xd5, 0x33, 0x10, 0xbe, 0xc7, 0xf9, 0x91, 0x3f,
  0x63, 0x61, 0xb4, 0xbe, 0xdd, 0x76, 0xde, 0xbd, 0x7b, 0x58, 0x9c, 0x3f,
  0xe3, 0x6f, 0x06, 0xbd, 0xf9, 0x8b, 0x03, 0xbe, 0x02, 0xbe, 0x6e, 0x3e,
  0x1f, 0x68, 0xbe, 0x3d, 0x3f, 0xa3, 0x80, 0xbe, 0x3d, 0xe4, 0x74, 0x3d,
  0xa9, 0xdb, 0x6c, 0x3e, 0xe3, 0xcf, 0x73, 0xbc, 0xe7, 0xa5, 0x94, 0x3e,
  0x19, 0x18, 0xa1, 0x3e, 0x13, 0x2e, 0xb3, 0x3d, 0xe4, 0xd4, 0xb7, 0x3d,
  0xd4, 0x38, 0xe1, 0x3b, 0x7d, 0x3f, 0x26, 0xbe, 0xf1, 0xa0, 0x70, 0xbb,
  0xd2, 0x1f, 0xa8, 0x3e, 0xa8, 0xec, 0x3d, 0xbe, 0xd3, 0x3f, 0x85, 0x3e,
  0x72, 0x28, 0x13, 0x3e, 0x57, 0xf2, 0xf0, 0xbd, 0x0f, 0x0a, 0x3f, 0xbd,
  0x0c, 0x80, 0xc5, 0x3e, 0x35, 0x45, 0x96, 0xbe, 0x44, 0xc3, 0x0b, 0x3d,
  0x14, 0xdc, 0xc8, 0x3e, 0x4a, 0x04, 0xa0, 0xbe, 0x7c, 0x84, 0xae, 0x3e,
  0x37, 0x9e, 0x4b, 0x3e, 0x95, 0x6a, 0xe7, 0xbd, 0xd0, 0x11, 0x9a, 0xbc,
  0x9a, 0x17, 0xd3, 0x3e, 0xc7, 0x14, 0xe3, 0xbb, 0xa3, 0x20, 0x3c, 0x3e,
  0xe1, 0x37, 0xc8, 0x3d, 0xac, 0x1a, 0xc4, 0xbd, 0x2b, 0xb5, 0xda, 0x3d,
  0xeb, 0xb2, 0xdf, 0x3e, 0x66, 0xaa, 0x21, 0x3e, 0x55, 0x3c, 0xf1, 0xbd,
  0xbd, 0x26, 0x8a, 0x3e, 0xda, 0x33, 0x1d, 0x3d, 0x57, 0xfb, 0x03, 0xbb,
  0xc9, 0xad, 0x81, 0x3d, 0xa6, 0xdc, 0x90, 0x3d, 0x22, 0xe7, 0x52, 0xbe,
  0x91, 0x76, 0xef, 0x3c, 0xb0, 0x93, 0x6c, 0xbe, 0x64, 0x63, 0x21, 0xbc,
  0x98, 0xce, 0x25, 0x3e, 0xa7, 0x91, 0x4a, 0xbe, 0xd9, 0x4c, 0xab, 0xbb,
  0x1f, 0x74, 0x40, 0xbc, 0x58, 0xbd, 0xd3, 0x3d, 0x11, 0x2f, 0x8b, 0xbe,
  0x53, 0x4c, 0xe0, 0x3d, 0xc8, 0x72, 0x64, 0x3d, 0x99, 0xe0, 0x75, 0xbe,
  0xfe, 0xd6, 0xa5, 0x3e, 0x89, 0x78, 0xb1, 0x3d, 0x9b, 0x04, 0xf4, 0xbd,
  0x78, 0x36, 0x47, 0x3e, 0x2f, 0xff, 0xde, 0x3d, 0xf6, 0x8b, 0x0c, 0xbe,
  0x9b, 0xa0, 0x03, 0x3d, 0xba, 0x27, 0xbd, 0x3d, 0xf9, 0x4e, 0x34, 0x3e,
  0x7a, 0x78, 0x1d, 0x3e, 0x15, 0x31, 0x71, 0x3b, 0x2e, 0x0f, 0x57, 0xbe,
  0x07, 0x70, 0xa7, 0xbd, 0x5b, 0xd5, 0x49, 0xbd, 0xd2, 0xca, 0x9a, 0xbc,
  0x16, 0x1d, 0x31, 0x3e, 0x43, 0x1b, 0x9e, 0x3c, 0x84, 0x6a, 0xa2, 0xbd,
  0x8a, 0xad, 0x53, 0x3e, 0xb9, 0x14, 0x46, 0x3e, 0x56, 0xab, 0x88, 0xbe,
  0x51, 0xac, 0xdb, 0xbd, 0x2b, 0x09, 0x05, 0x3e, 0x0b, 0xcb, 0x00, 0x3e,
  0x4b, 0x47, 0x02, 0xbe, 0xe3, 0x81, 0x83, 0x3d, 0xef, 0xc8, 0x47, 0x3e,
  0x71, 0x55, 0x30, 0xbd, 0xd6, 0x70, 0x29, 0xbe, 0xdb, 0x44, 0x38, 0x3e,
  0x29, 0xc6, 0xb7, 0x3d, 0x56, 0xf0, 0x6e, 0xbd, 0x0a, 0x09, 0xa1, 0x3d,
  0xe6, 0x0d, 0xa7, 0xbd, 0x42, 0x07, 0x05, 0x3c, 0x32, 0xf6, 0x43, 0x3e,
  0xc2, 0xc8, 0xd8, 0x3b, 0x1d, 0x62, 0x06, 0xbd, 0xb6, 0x6c, 0x82, 0x3e,
  0xa6, 0xb7, 0x91, 0xbe, 0x56, 0x72, 0x1a, 0xbe, 0xc2, 0x1a, 0xc8, 0xbd,
  0x0c, 0xbf, 0x3c, 0xbe, 0x9c, 0xff, 0x0c, 0xbe, 0xf7, 0x3a, 0x32, 0x3e,
  0x62, 0xd0, 0x2b, 0xbe, 0x5a, 0x6f, 0x4a, 0xbe, 0xe7, 0x20, 0x55, 0x3e,
  0x4b, 0x78, 0xa3, 0xbe, 0x1b, 0x58, 0x8b, 0xbe, 0x9f, 0x36, 0x48, 0x3e,
  0xf8, 0xb0, 0xb5, 0xbe, 0x86, 0x7f, 0x20, 0xbc, 0xb3, 0xf2, 0xba, 0xbd,
  0xf7, 0xe8, 0x7d, 0x3d, 0x57, 0x26, 0xd9, 0xbd, 0x9c, 0xf6, 0x20, 0x3e,
  0xdf, 0xcd, 0x63, 0xbe, 0x62, 0x43, 0xa3, 0xbd, 0x6f, 0x22, 0xc5, 0xbd,
  0x33, 0xfe, 0x09, 0x3d, 0xba, 0xd5, 0x79, 0xbe, 0xb0, 0x15, 0xe0, 0xbd,
  0xde, 0x7f, 0x2a, 0xbd, 0x30, 0x8d, 0x0d, 0xbe, 0x0b, 0x50, 0x65, 0x3e,
  0x1c, 0x0e, 0xac, 0xbe, 0x1e, 0x88, 0x33, 0xbe, 0x74, 0x07, 0x95, 0x3b,
  0xff, 0xd8, 0xcf, 0x3d, 0xb7, 0x89, 0x36, 0xbe, 0x78, 0x68, 0x44, 0x3e,
  0x7c, 0xd2, 0xdb, 0x3b, 0x3a, 0xec, 0x6d, 0x3e, 0x26, 0x57, 0x62, 0x3d,
  0x2e, 0x15, 0xd7, 0x3e, 0x30, 0x85, 0xd1, 0x3c, 0x18, 0x83, 0xbf, 0x3d,
  0x67, 0x68, 0x94, 0x3e, 0xf8, 0x72, 0x3f, 0xbe, 0x08, 0xf6, 0x44, 0xbc,
  0xfe, 0x76, 0xc8, 0x3e, 0x2e, 0xe6, 0x9b, 0xbc, 0xb5, 0x72, 0x13, 0xbe,
  0x58, 0x7f, 0xcd, 0x3e, 0x21, 0x7d, 0x46, 0xbe, 0x93, 0x6d, 0xae, 0xbd,
  0x83, 0x07, 0xce, 0x3e, 0x70, 0x31, 0x53, 0xbe, 0x8d, 0x4d, 0xf9, 0x3d,
  0x38, 0x49, 0x95, 0x3e, 0xe1, 0xc4, 0x89, 0xbe, 0x05, 0xe3, 0x84, 0xbd,
  0xe8, 0x09, 0xc5, 0x3e, 0x77, 0xd5, 0xac, 0xbd, 0x42, 0x57, 0x1a, 0xbe,
  0x27, 0xbb, 0x58, 0x3e, 0x4e, 0x8b, 0x19, 0xbe, 0x93, 0x89, 0x86, 0xbe,
  0x07, 0x82, 0x55, 0x3e, 0x2e, 0xfe, 0xe7, 0x3d, 0xe2, 0xc5, 0x90, 0xbe,
  0xa0, 0xbf, 0x46, 0xbd, 0x36, 0x66, 0x8e, 0xbe, 0x6c, 0xe0, 0x85, 0xbe,
  0x26, 0xe1, 0x1d, 0xbe, 0xd6, 0xee, 0xe7, 0xbd, 0x72, 0x0d, 0xc0, 0xbc,
  0xc5, 0x4a, 0x83, 0xbe, 0x9d, 0xde, 0x37, 0x3d, 0x90, 0x64, 0x94, 0xbe,
  0x81, 0xb6, 0xf5, 0xbc, 0x96, 0xde, 0x7d, 0xbd, 0x0e, 0xad, 0xbc, 0xbe,
  0x68, 0xaf, 0x09, 0xbe, 0xda, 0xcf, 0x01, 0x3c, 0xc4, 0x2e, 0xb1, 0xbd,
  0x92, 0x70, 0x07, 0x3d, 0xe8, 0xbe, 0xd9, 0xbd, 0x63, 0x67, 0xde, 0x3c,
  0x50, 0x89, 0x70, 0x3d, 0x15, 0x41, 0x92, 0xbd, 0x48, 0x7c, 0x57, 0xbd,
  0x55, 0x89, 0x0b, 0xbd, 0x79, 0xa0, 0xb0, 0xbd, 0x14, 0x0c, 0xc3, 0x3d,
  0xe2, 0x8e, 0xb7, 0x3d, 0xb2, 0x39, 0xa8, 0x3d, 0x61, 0x8b, 0x19, 0xbe,
  0x61, 0x00, 0xac, 0x3e, 0x2e, 0x56, 0x48, 0xbe, 0x06, 0x1e, 0x0f, 0x3d,
  0x29, 0x56, 0x81, 0x3e, 0x64, 0x4b, 0x40, 0xbd, 0xa6, 0x73, 0x34, 0xbe,
  0x27, 0xf3, 0xb2, 0x3e, 0x36, 0xac, 0x88, 0xbd, 0x1a, 0x78, 0xc4, 0xbe,
  0x43, 0x1c, 0x6d, 0x3e, 0x6a, 0x67, 0x85, 0x3d, 0x22, 0x71, 0x08, 0xbd,
  0xab, 0x27, 0x73, 0x3e, 0xf4, 0xf4, 0x9b, 0x3d, 0xa7, 0x00, 0x42, 0xbe,
  0x86, 0x78, 0x73, 0xbd, 0xd9, 0x83, 0xba, 0x3e, 0x65, 0xfb, 0xb6, 0xbd,
  0x28, 0xfd, 0xae, 0xbd, 0x14, 0x93, 0xb2, 0x3e, 0x8b, 0x24, 0x8c, 0xbe,
  0x62, 0xf9, 0xe4, 0x3d, 0xc3, 0x5a, 0x32, 0xbd, 0xaa, 0x7e, 0xb5, 0xbe,
  0xb1, 0xb7, 0x26, 0xbe, 0xfe, 0xad, 0x84, 0x3e, 0xc3, 0xbc, 0x9e, 0xbe,
  0xcf, 0xf1, 0xde, 0xbd, 0x87, 0x4a, 0xc6, 0x3d, 0xae, 0x1b, 0x6b, 0xbe,
  0xc8, 0xc9, 0xdf, 0xbd, 0x65, 0x66, 0x78, 0x3e, 0x5b, 0x50, 0x92, 0xbe,
  0x41, 0x92, 0x48, 0x3d, 0x4f, 0x5e, 0x1c, 0xbd, 0x48, 0x96, 0x29, 0xbe,
  0x82, 0xb4, 0x55, 0xbe, 0x34, 0x9a, 0x20, 0x3d, 0xbe, 0x49, 0xfb, 0xbd,
  0xc5, 0xe1, 0x21, 0xbe, 0x95, 0xa8, 0xfb, 0x3d, 0x1f, 0xcb, 0xe0, 0xbe,
  0xaa, 0x18, 0x65, 0x3d, 0x99, 0x1f, 0xbe, 0xbd, 0xb4, 0xf8, 0x0f, 0xbe,
  0x18, 0x95, 0x71, 0x3e, 0xf3, 0x11, 0x56, 0xbd, 0x5b, 0x84, 0xbb, 0xbe,
  0xd7, 0xc3, 0x72, 0x3e, 0x32, 0xb2, 0x3f, 0x3d, 0x1d, 0xca, 0xd6, 0xbe,
  0x83, 0x8c, 0x2e, 0x3e, 0x48, 0x1b, 0x45, 0x3e, 0x16, 0xe6, 0x0c, 0xbf,
  0xfe, 0x27, 0x46, 0x3f, 0xec, 0x77, 0xe0, 0x3d, 0x3f, 0x9e, 0x98, 0xbe,
  0x30, 0x11, 0x39, 0x3f, 0x34, 0xfd, 0xce, 0xbc, 0x84, 0x11, 0xd0, 0xbe,
  0x1d, 0x30, 0xf3, 0x3e, 0xda, 0xc8, 0x0a, 0xbe, 0xba, 0xe4, 0xfe, 0xbe,
  0x93, 0xe0, 0x48, 0x3e, 0xa1, 0xde, 0x32, 0xbc, 0x04, 0x7e, 0x23, 0xbe,
  0x09, 0x47, 0x91, 0xbe, 0x3b, 0x48, 0x57, 0xbd, 0xdb, 0x39, 0xc8, 0xbd,
  0x55, 0x99, 0x84, 0xbe, 0x86, 0x21, 0x9c, 0xbe, 0xff, 0x90, 0xcf, 0xbd,
  0xee, 0x78, 0x39, 0xbe, 0xa9, 0xb9, 0x0b, 0xbf, 0x48, 0xba, 0xfe, 0x3d,
  0x80, 0x75, 0xbb, 0xbe, 0x45, 0x3e, 0xb6, 0xbe, 0xf3, 0xe5, 0x05, 0x3d,
  0xae, 0x3a, 0x90, 0xbe, 0xda, 0xa7, 0x0d, 0xbf, 0x8e, 0xef, 0x89, 0x3e,
  0xc5, 0xca, 0xde, 0xbe, 0xa1, 0x74, 0x73, 0xbe, 0x48, 0x9c, 0x32, 0x3a,
  0x18, 0x8a, 0xa9, 0xbe, 0xc6, 0x90, 0x49, 0xbe, 0x65, 0xb1, 0x2c, 0x3e,
  0xd8, 0xf0, 0xa5, 0xbe, 0x63, 0x85, 0x24, 0x3e, 0x3b, 0xb2, 0x91, 0x3d,
  0x78, 0xaf, 0x9e, 0xbe, 0x3d, 0xf9, 0xfc, 0x3e, 0x9f, 0x6c, 0x18, 0xbe,
  0xe9, 0xd7, 0x24, 0xbf, 0x3c, 0xe5, 0x91, 0x3e, 0x77, 0x5d, 0xa9, 0xbd,
  0xbe, 0x67, 0xef, 0xbe, 0x00, 0x38, 0x03, 0x3f, 0xa1, 0x45, 0x1c, 0xbd,
  0x94, 0x23, 0x04, 0xbf, 0xe4, 0x86, 0xd8, 0x3e, 0x2a, 0xe9, 0x80, 0xbd,
  0xf8, 0x56, 0x47, 0xbf, 0x70, 0x6a, 0x45, 0x3e, 0xe2, 0xb4, 0x1a, 0xbe,
  0x1d, 0x2f, 0x39, 0xbf, 0xd0, 0xcf, 0x21, 0x3e, 0xd6, 0x3f, 0x50, 0x3d,
  0xb4, 0xe0, 0x28, 0xbf, 0xb6, 0xce, 0x66, 0x3e, 0x88, 0x8c, 0x31, 0x3c,
  0xb5, 0xd4, 0xad, 0xbe, 0x4c, 0x00, 0xbe, 0x3e, 0xee, 0xdd, 0xfc, 0xbd,
  0x09, 0xb1, 0xac, 0xbe, 0x37, 0x82, 0xf6, 0x3e, 0x39, 0x76, 0x13, 0xbd,
  0x2d, 0x8b, 0xc3, 0xbe, 0x71, 0x47, 0xae, 0x3e, 0x5e, 0x7e, 0x01, 0x3e,
  0xeb, 0x28, 0x29, 0xbf, 0xfb, 0x3a, 0x2b, 0x3f, 0x7f, 0x56, 0x56, 0xbd,
  0x76, 0x76, 0x22, 0xbf, 0xb5, 0xcf, 0x2e, 0x3f, 0x29, 0xc7, 0x58, 0xbe,
  0xe1, 0xbb, 0x2a, 0xbf, 0xb8, 0x1e, 0x2c, 0x3f, 0xe9, 0xa1, 0x5f, 0x3e,
  0x5e, 0x47, 0x28, 0xbf, 0x29, 0x90, 0xf7, 0x3e, 0x6b, 0x45, 0x0d, 0x3d,
  0x39, 0xc2, 0x1b, 0xbf, 0x2a, 0x7c, 0xef, 0x3e, 0x8f, 0xdc, 0xf6, 0x3d,
  0xfe, 0x32, 0x41, 0xbf, 0x2a, 0x5b, 0x4e, 0x3e, 0xdd, 0x02, 0x06, 0xbe,
  0xe8, 0x58, 0x2d, 0xbf, 0x01, 0x48, 0x2c, 0x3e, 0x25, 0xf1, 0x31, 0xbe,
  0x24, 0xf4, 0xcc, 0xbe, 0x09, 0xc0, 0x2b, 0x3e, 0x24, 0x4d, 0xce, 0xbe,
  0x67, 0xb9, 0x6f, 0xbe, 0x96, 0xbf, 0x20, 0xbe, 0xb7, 0xf3, 0xf2, 0xbe,
  0xec, 0x23, 0x38, 0xbe, 0xcf, 0x8c, 0x34, 0x3d, 0x11, 0xb1, 0xf1, 0xbe,
  0xb3, 0x26, 0xa3, 0x3d, 0xca, 0x43, 0x5b, 0xbe, 0x7f, 0x67, 0x45, 0xbf,
  0x89, 0x95, 0x57, 0x3e, 0x7b, 0x49, 0xc8, 0x3c, 0x55, 0x43, 0x22, 0xbf,
  0xe5, 0x00, 0x89, 0x3e, 0xae, 0x0f, 0x37, 0x3d, 0x15, 0x3c, 0x55, 0xbf,
  0x6d, 0xa4, 0x07, 0x3f, 0xd9, 0x4c, 0x92, 0xbd, 0xb3, 0x78, 0x64, 0xbf,
  0xd4, 0x7a, 0x4a, 0x3e, 0xcc, 0x2a, 0x34, 0x3d, 0x03, 0x6e, 0x2f, 0xbf,
  0x7f, 0xda, 0xac, 0x3e, 0xcb, 0x6c, 0x42, 0x3e, 0x26, 0x5b, 0x64, 0xbf,
  0x42, 0x87, 0xa6, 0x3e, 0x77, 0x6e, 0xd0, 0x3e, 0xf7, 0x83, 0x49, 0xbf,
  0x25, 0xef, 0xe6, 0x3e, 0x67, 0x11, 0x0d, 0x3f, 0x6c, 0xaa, 0x6d, 0xbf,
  0xbb, 0x7d, 0x96, 0xbe, 0x0c, 0xaf, 0x29, 0xbd, 0x16, 0x3f, 0xd2, 0xbc,
  0x19, 0xeb, 0xa1, 0xbe, 0xe0, 0xaa, 0x3d, 0xbe, 0xa5, 0x4f, 0x1e, 0x3e,
  0x25, 0xb2, 0x34, 0xbe, 0x20, 0x65, 0x19, 0x3e, 0xad, 0xb7, 0xd2, 0xbd,
  0xab, 0x7b, 0x06, 0x3e, 0x14, 0x55, 0x35, 0x3e, 0x06, 0x32, 0xad, 0xbd,
  0x36, 0x0d, 0x9f, 0x3e, 0x78, 0x98, 0x11, 0x3e, 0xe4, 0xc9, 0x62, 0xbe,
  0xc3, 0x16, 0xb4, 0x3e, 0x0c, 0xd6, 0x8a, 0x3c, 0x89, 0x1b, 0x80, 0xbe,
  0x0f, 0x44, 0x36, 0x3f, 0xd0, 0x87, 0x66, 0xbe, 0x0b, 0x26, 0xae, 0xbd,
  0xd3, 0x28, 0x45, 0x3f, 0xa9, 0xd5, 0x79, 0xbd, 0xde, 0xb9, 0x57, 0xbd,
  0xdb, 0x19, 0xb2, 0x3e, 0x4e, 0xb1, 0x6b, 0xbe, 0x5e, 0x46, 0x98, 0xbc,
  0xf0, 0x60, 0xef, 0x3e, 0xa8, 0x8e, 0x5d, 0xbe, 0x23, 0x5b, 0xc1, 0x3d,
  0xa6, 0xc2, 0x8e, 0x3e, 0xf5, 0x5c, 0x5c, 0x3d, 0x00, 0x6e, 0x95, 0xbe,
  0x07, 0x88, 0xa1, 0x3e, 0xa8, 0x6a, 0xa0, 0xbd, 0xdd, 0xfc, 0xa6, 0xbe,
  0x7c, 0xf6, 0xa5, 0x3d, 0xa3, 0xdf, 0x7a, 0xbe, 0xfd, 0x1e, 0xd8, 0xbe,
  0xbe, 0x75, 0x03, 0xbd, 0xca, 0xe2, 0x4d, 0xbd, 0x3c, 0xc8, 0xda, 0xbe,
  0xdd, 0x2d, 0x1d, 0xbe, 0x92, 0x22, 0xbd, 0xbe, 0x91, 0xbf, 0xea, 0xbd,
  0x44, 0xd6, 0x3e, 0x3b, 0x86, 0x67, 0xb2, 0xbe, 0xb2, 0x0d, 0x0c, 0xbe,
  0x79, 0x9b, 0x04, 0xbe, 0xec, 0x59, 0x0d, 0xbf, 0x31, 0xab, 0xc9, 0xbe,
  0xaf, 0x11, 0x2d, 0x3c, 0xdc, 0x61, 0x07, 0xbf, 0x1b, 0x1f, 0x22, 0xbe,
  0xb5, 0x4d, 0xfe, 0x3d, 0x33, 0x68, 0xa5, 0xbe, 0xf9, 0x20, 0x98, 0xbe,
  0x6a, 0xc6, 0xa9, 0xbc, 0x6a, 0xa5, 0xd0, 0xbe, 0x2c, 0x14, 0x2d, 0xbe,
  0x13, 0x44, 0x01, 0x3d, 0x45, 0xf9, 0xac, 0xbe, 0x38, 0xf6, 0x03, 0xbe,
  0x4b, 0x06, 0xcc, 0x3d, 0x6b, 0x6a, 0x13, 0x3c, 0x0f, 0x12, 0x87, 0x3d,
  0x4e, 0x49, 0x2f, 0x3e, 0x75, 0xa3, 0xa4, 0xbc, 0xe0, 0xc9, 0xd7, 0xba,
  0x95, 0x2f, 0xa7, 0xbc, 0x2e, 0x2b, 0x45, 0x3c, 0x42, 0x32, 0xe2, 0xbe,
  0x07, 0x4e, 0x6a, 0x3e, 0x6a, 0x03, 0x79, 0xbd, 0x16, 0x92, 0x95, 0xbe,
  0x7a, 0xd9, 0xb6, 0x3d, 0x40, 0x4e, 0x10, 0xbe, 0x1b, 0xc2, 0x81, 0xbe,
  0x99, 0x12, 0xcd, 0x3e, 0xc5, 0xc1, 0x00, 0xbc, 0x68, 0x68, 0x04, 0xbf,
  0x3b, 0xb8, 0xb9, 0x3e, 0x4e, 0x5b, 0x06, 0x3f, 0x74, 0xac, 0xde, 0xbe,
  0x30, 0xc3, 0x9f, 0x3e, 0xe7, 0x24, 0x07, 0x3f, 0xcc, 0xf5, 0xe0, 0xbe,
  0x39, 0x3f, 0x7c, 0x3e, 0xc0, 0x63, 0x81, 0x3e, 0x7d, 0xc9, 0x9d, 0xbe,
  0xe6, 0x4e, 0x87, 0x3e, 0xcb, 0x60, 0xc9, 0x3e, 0x2e, 0xbb, 0x0c, 0xbf,
  0xb1, 0xe7, 0xd0, 0x3e, 0x82, 0x67, 0x93, 0x3e, 0x89, 0x4e, 0xe6, 0xbe,
  0xc3, 0x0b, 0x8a, 0x3e, 0xe0, 0xb0, 0x05, 0x3e, 0x2a, 0x08, 0xe4, 0xbe,
  0x6e, 0x3a, 0x83, 0x3e, 0x8f, 0xb5, 0xbe, 0xbc, 0x2c, 0x62, 0x21, 0xbf,
  0x99, 0x61, 0x5d, 0x3e, 0x4c, 0xfb, 0x17, 0xbd, 0xd3, 0xd5, 0xe0, 0xbe,
  0xa4, 0xe2, 0x2b, 0x3d, 0xd9, 0xac, 0x98, 0xbc, 0xd1, 0xcb, 0xa4, 0xbe,
  0xbb, 0x58, 0xc1, 0x3e, 0x4d, 0x25, 0x9d, 0x3d, 0xca, 0x00, 0x1f, 0xbf,
  0x44, 0xbc, 0xaf, 0x3e, 0xa1, 0xda, 0xa5, 0x3d, 0x99, 0x89, 0xd7, 0xbe,
  0x09, 0xf0, 0xc8, 0x3e, 0x1f, 0x1f, 0xb2, 0xbc, 0x62, 0xab, 0x23, 0xbf,
  0xaa, 0xa3, 0x36, 0x3e, 0x00, 0xf7, 0xc3, 0x3e, 0x6d, 0xc5, 0xe0, 0xbe,
  0x09, 0xbb, 0x38, 0xbe, 0x26, 0x78, 0x25, 0x3d, 0x5b, 0xfd, 0xca, 0xbd,
  0x46, 0x28, 0xc9, 0xbd, 0x50, 0x80, 0x86, 0x3e, 0x05, 0xeb, 0x20, 0x3d,
  0x87, 0xb1, 0xb8, 0x3d, 0x22, 0x67, 0x82, 0xbc, 0xcc, 0xcd, 0x1d, 0xbe,
  0xac, 0xd0, 0x37, 0xbb, 0x20, 0x7c, 0xd2, 0xbc, 0x7f, 0xa8, 0x27, 0x3e,
  0xa6, 0xc7, 0xf5, 0xbc, 0xbe, 0xe0, 0x28, 0xbe, 0x25, 0x3f, 0x33, 0x3e,
  0x73, 0x90, 0x74, 0x3d, 0xf2, 0x7d, 0x88, 0x3c, 0x15, 0x76, 0xc7, 0x3d,
  0x23, 0x82, 0x8d, 0x3d, 0x1f, 0x6f, 0x84, 0xbd, 0xe3, 0xe3, 0x49, 0xbe,
  0xe4, 0x58, 0x5a, 0xbe, 0x2d, 0xec, 0xbd, 0xbd, 0xc7, 0xa4, 0x14, 0x3d,
  0x2e, 0x66, 0xf4, 0x3d, 0x43, 0xa8, 0x8a, 0xbd, 0xfb, 0x29, 0x63, 0xbe,
  0xc9, 0x08, 0x1b, 0x3e, 0xe6, 0xcc, 0x38, 0xbe, 0xe0, 0xa2, 0x35, 0x3d,
  0x28, 0x69, 0x78, 0x3d, 0x7b, 0x00, 0xb7, 0xbc, 0xa7, 0x8d, 0x2f, 0x3e,
  0xb0, 0x55, 0xa7, 0x3d, 0x8c, 0x28, 0x38, 0x3e, 0x73, 0x48, 0x5a, 0xbe,
  0xff, 0x52, 0x4b, 0xbe, 0xb7, 0x63, 0x6e, 0x3d, 0x51, 0x4f, 0x0c, 0x3d,
  0x8a, 0x7f, 0x65, 0xbe, 0x62, 0x90, 0x45, 0xbe, 0xa4, 0xe1, 0x6a, 0x3e,
  0x5d, 0xa5, 0x81, 0x3c, 0xc8, 0xf3, 0x21, 0x3c, 0xf5, 0x5a, 0x61, 0x3d,
  0x72, 0x85, 0xa2, 0x3d, 0x5b, 0x38, 0x5d, 0xbd, 0x8f, 0x0f, 0x16, 0x3d,
  0xde, 0x42, 0x5a, 0x3d, 0x89, 0xcf, 0x89, 0xbd, 0x9c, 0xd1, 0xf8, 0x3d,
  0xbe, 0x05, 0x75, 0xba, 0xd7, 0x9d, 0x25, 0x3e, 0x2e, 0xd6, 0xe4, 0x3d,
  0x12, 0x6f, 0x3f, 0x3e, 0x20, 0x53, 0x48, 0xbe, 0xbf, 0xbd, 0x22, 0xbe,
  0xf0, 0x60, 0xeb, 0xbd, 0x9f, 0xa4, 0x13, 0x3e, 0x89, 0x22, 0x4d, 0x3d,
  0x4d, 0xd8, 0x12, 0xbe, 0x43, 0x50, 0x07, 0x3e, 0x7d, 0x7f, 0x08, 0xbe,
  0x8e, 0x93, 0x28, 0xbe, 0x0e, 0xa3, 0x6c, 0xbe, 0x3a, 0x14, 0xae, 0xbc,
  0x4e, 0xd5, 0xa3, 0xbc, 0x2e, 0x8e, 0x1b, 0xbe, 0x44, 0xab, 0x9c, 0x3d,
  0xa2, 0x79, 0x23, 0xbc, 0x65, 0x8a, 0x02, 0xbd, 0x83, 0xf5, 0xb7, 0xbd,
  0x32, 0xfc, 0xe3, 0xbd, 0xe0, 0xd8, 0xeb, 0xbd, 0x81, 0xaa, 0xbb, 0x3d,
  0x5a, 0x4b, 0x20, 0x3e, 0x77, 0x32, 0x13, 0x3e, 0x42, 0x53, 0x5f, 0x3d,
  0xfa, 0x26, 0x6c, 0xbb, 0xbb, 0x4f, 0xef, 0x3d, 0xfa, 0xc7, 0x00, 0xbe,
  0x60, 0xd4, 0xb5, 0x3c, 0x06, 0x65, 0xbb, 0x3d, 0x3b, 0xba, 0x0a, 0x3e,
  0xbd, 0x97, 0x40, 0x3e, 0xaa, 0x8b, 0x01, 0xbd, 0x91, 0xe4, 0x32, 0x3e,
  0x47, 0x62, 0x38, 0xbe, 0xb6, 0x90, 0xaf, 0xbd, 0xe9, 0x0d, 0x17, 0x3c,
  0xce, 0x00, 0x1e, 0x3e, 0x7b, 0xef, 0xed, 0x3d, 0xea, 0x21, 0x13, 0x3d,
  0xf6, 0xcb, 0x26, 0xbe, 0xe9, 0x67, 0x3e, 0x3e, 0xd0, 0x0f, 0x5c, 0xbd,
  0x46, 0x83, 0x23, 0xbe, 0x5f, 0xfa, 0xac, 0x3d, 0x99, 0xff, 0x26, 0x3d,
  0xae, 0x32, 0xd4, 0x3c, 0xf9, 0x93, 0x02, 0xbd, 0x76, 0x20, 0x37, 0xbe,
  0xf2, 0xf9, 0xab, 0x3d, 0xd6, 0xe9, 0x8a, 0x3c, 0xc5, 0xea, 0x64, 0xbe,
  0xe6, 0xa3, 0xe1, 0xbc, 0x61, 0x4a, 0x0f, 0xbe, 0xfb, 0x50, 0x02, 0xbe,
  0xbb, 0xfa, 0x26, 0xbb, 0x24, 0x29, 0x39, 0xbc, 0x8d, 0xbc, 0x0a, 0xbe,
  0x0f, 0x34, 0xcb, 0xbc, 0xe3, 0x79, 0x9b, 0xbd, 0x74, 0x0f, 0x4b, 0x3d,
  0x7f, 0x6b, 0x9b, 0x3d, 0xad, 0xe7, 0x0f, 0xbe, 0x6d, 0xc7, 0x45, 0x3e,
  0x75, 0x3b, 0xa0, 0x3d, 0x30, 0xb4, 0xa5, 0xbd, 0x3e, 0x0a, 0x1a, 0x3e,
  0x03, 0x1e, 0x3e, 0xbf, 0xe3, 0xe8, 0x4e, 0xbe, 0x08, 0xda, 0x3e, 0x3e,
  0x0c, 0xe4, 0x1f, 0xbf, 0x22, 0x63, 0xbf, 0x3c, 0x14, 0x1a, 0xcc, 0x3e,
  0x02, 0xba, 0x10, 0xbe, 0xce, 0xa5, 0x92, 0xbc, 0x8d, 0x53, 0xa2, 0x3c,
  0x82, 0x96, 0xc8, 0x3d, 0x56, 0x28, 0x30, 0xbd, 0xa2, 0x8d, 0x36, 0x3b,
  0x9e, 0xb9, 0x35, 0x3f, 0x45, 0xcf, 0x21, 0xbd, 0xf6, 0x0a, 0x0f, 0x3d,
  0xc1, 0x61, 0x43, 0x3f, 0x14, 0x6e, 0xa6, 0xbe, 0x21, 0x78, 0xb8, 0xbd,
  0xb5, 0x3d, 0x86, 0x3f, 0x47, 0xdb, 0x98, 0xbe, 0xfd, 0xe2, 0xf2, 0xbd,
  0xd5, 0x13, 0x3c, 0x3f, 0x78, 0xdc, 0xc1, 0xbe, 0x92, 0x42, 0x60, 0x3c,
  0x05, 0xe5, 0x82, 0x3f, 0xdd, 0xb1, 0x0b, 0xbf, 0xf7, 0x25, 0x07, 0xbe,
  0xa0, 0xe5, 0x8c, 0x3f, 0x10, 0xb6, 0x4a, 0xbc, 0xcc, 0x88, 0xca, 0x3d,
  0x17, 0x3d, 0x89, 0x3f, 0x6d, 0x38, 0x1d, 0xbe, 0x13, 0x5e, 0x57, 0xbe,
  0xd7, 0xc2, 0x3d, 0x3f, 0x9c, 0x4b, 0x35, 0x3d, 0xb0, 0xf7, 0x99, 0xbe,
  0xec, 0xe8, 0x0d, 0x3f, 0xbb, 0x9a, 0xaa, 0xbe, 0x61, 0x57, 0xa8, 0xbe,
  0x3b, 0x08, 0xb5, 0x3e, 0x4d, 0xba, 0x54, 0xbe, 0x41, 0x6c, 0x1f, 0xbf,
  0xd2, 0xbe, 0xd3, 0x3c, 0x35, 0x55, 0xb5, 0xbe, 0x06, 0xfe, 0x4f, 0xbf,
  0x83, 0xaf, 0x86, 0x3e, 0x62, 0xee, 0x16, 0xbf, 0xcf, 0x04, 0x02, 0xbf,
  0x7e, 0x60, 0x70, 0x3d, 0x66, 0x48, 0xaf, 0xbe, 0xa5, 0x37, 0xe9, 0xbe,
  0x2e, 0xec, 0xb9, 0x3e, 0x8e, 0xa8, 0x02, 0xbf, 0xce, 0xc8, 0xe0, 0xbe,
  0x29, 0x2f, 0x89, 0x3e, 0xff, 0x84, 0x0a, 0xbf, 0x1a, 0x16, 0xe2, 0xbe,
  0x18, 0xfc, 0xb2, 0x3e, 0x2c, 0x5c, 0x67, 0xbe, 0x65, 0xd7, 0x67, 0xbe,
  0xab, 0x0f, 0xce, 0x3e, 0x77, 0xae, 0x5d, 0xbe, 0x27, 0x90, 0xb2, 0xbd,
  0xef, 0xa9, 0xa1, 0x3e, 0x58, 0x27, 0xa0, 0xbd, 0x12, 0x88, 0x84, 0xbc,
  0x95, 0xc9, 0x0d, 0x3f, 0xe2, 0x60, 0x6a, 0xbe, 0x70, 0x4e, 0x8b, 0xbe,
  0x95, 0x1e, 0xf4, 0x3e, 0x99, 0x2f, 0x5d, 0xbe, 0xfd, 0x52, 0xe2, 0xbe,
  0x45, 0x32, 0x21, 0x3f, 0x87, 0xb4, 0xde, 0xbe, 0xf2, 0x7e, 0x3c, 0xbf,
  0x6e, 0x4d, 0x49, 0x3f, 0x13, 0x88, 0x1d, 0xbe, 0xf0, 0xe9, 0x6f, 0xbf,
  0xdc, 0xce, 0x34, 0x3f, 0x98, 0x98, 0x04, 0x3e, 0x45, 0x6c, 0x43, 0xbf,
  0x61, 0xa3, 0xc8, 0x3e, 0x7e, 0x3e, 0x60, 0x3e, 0x78, 0x4f, 0x2d, 0xbf,
  0xc2, 0x4d, 0x2f, 0x3f, 0x9d, 0x2e, 0xaf, 0x3e, 0xc2, 0x78, 0x27, 0xbf,
  0x0a, 0x31, 0xd2, 0x3e, 0x01, 0xe9, 0xe9, 0x3e, 0x4c, 0xcd, 0x7d, 0xbe,
  0xbf, 0x31, 0x95, 0x3e, 0x51, 0x0f, 0xde, 0x3e, 0xe2, 0x6b, 0xc8, 0xbe,
  0x1b, 0x2e, 0x16, 0x3d, 0x43, 0xde, 0xb5, 0x3e, 0x89, 0x94, 0x7a, 0xbe,
  0x58, 0xfd, 0xbc, 0xbd, 0xde, 0xb8, 0xc8, 0x3e, 0x11, 0xb7, 0x70, 0xbe,
  0x1b, 0xf7, 0x2d, 0xbd, 0xea, 0xf9, 0x24, 0x3d, 0x5f, 0x80, 0xc0, 0xbe,
  0x48, 0x60, 0x97, 0xbb, 0x74, 0x32, 0xa7, 0x3e, 0xbc, 0x4b, 0xb9, 0xbe,
  0x95, 0xb5, 0x5b, 0xbe, 0xbc, 0x87, 0xa3, 0x3e, 0xbe, 0xd1, 0x3b, 0xbf,
  0x89, 0x46, 0xb1, 0xbe, 0xa3, 0xf3, 0x88, 0x3e, 0x81, 0x24, 0x3a, 0xbf,
  0xe6, 0x9e, 0xa6, 0xbe, 0x6c, 0x33, 0x48, 0x3d, 0x3f, 0x48, 0x66, 0xbf,
  0x94, 0x28, 0xfa, 0xbd, 0xc4, 0x84, 0x06, 0x3e, 0x6c, 0x21, 0x79, 0xbf,
  0xb0, 0xfc, 0xc9, 0x3c, 0x6b, 0x54, 0x01, 0x3f, 0x25, 0xf5, 0x43, 0xbf,
  0x13, 0x91, 0x0b, 0x3e, 0x46, 0x43, 0xd7, 0xbe, 0x11, 0x65, 0x45, 0x3e,
  0xd1, 0x5d, 0x51, 0x3e, 0x96, 0x12, 0x84, 0xbd, 0x1f, 0x00, 0x8a, 0x3e,
  0x22, 0x32, 0x36, 0x3d, 0xba, 0xcd, 0x32, 0x3b, 0x01, 0x72, 0xbe, 0x3d,
  0xc9, 0x62, 0x51, 0xbe, 0x73, 0x0f, 0xc2, 0xbe, 0x31, 0xc1, 0xd1, 0xbe,
  0x9f, 0x41, 0x23, 0xbe, 0xeb, 0x7f, 0x13, 0xbe, 0x16, 0xb2, 0x2f, 0xbe,
  0x4e, 0xf4, 0x58, 0xbe, 0x3a, 0x83, 0x88, 0x3e, 0x91, 0x08, 0x96, 0xbe,
  0xe0, 0x2e, 0x38, 0x3c, 0x61, 0x4e, 0x03, 0x3f, 0xcd, 0xba, 0xa8, 0xbe,
  0xfb, 0xc5, 0x8e, 0xbe, 0x98, 0x00, 0xe7, 0x3e, 0x08, 0x83, 0xb6, 0xbe,
  0xd2, 0x41, 0x4b, 0x3c, 0x9d, 0xf8, 0x07, 0x3f, 0x39, 0x90, 0x9c, 0xbd,
  0x70, 0x47, 0x42, 0xbe, 0xaf, 0xb1, 0x8b, 0x3d, 0x41, 0x84, 0xa2, 0xbe,
  0x65, 0xf5, 0x95, 0x3c, 0x8c, 0xe2, 0xd9, 0x3c, 0xec, 0xc7, 0xe2, 0xbe,
  0x75, 0x94, 0x60, 0xbe, 0x60, 0x5a, 0x04, 0xbe, 0x73, 0x2c, 0xc3, 0xbe,
  0x7f, 0x80, 0xa9, 0x3c, 0x8d, 0xa7, 0xfe, 0xbc, 0x2f, 0x4a, 0x02, 0xbd,
  0x87, 0x9e, 0x18, 0xbe, 0x78, 0x9a, 0x10, 0x3e, 0xd7, 0x79, 0x66, 0x3c,
  0x85, 0xbb, 0xc1, 0x3d, 0xbe, 0x73, 0x16, 0x3e, 0x05, 0x0a, 0x73, 0xbe,
  0x92, 0xec, 0xe0, 0xbd, 0x22, 0xae, 0x1e, 0x3d, 0x0a, 0x5a, 0x57, 0xbe,
  0x64, 0x21, 0x35, 0xbe, 0x90, 0x50, 0xb9, 0x3e, 0xff, 0x8d, 0x84, 0x3d,
  0x95, 0x49, 0x13, 0xbe, 0xe7, 0x84, 0x8d, 0x3d, 0xec, 0x91, 0x58, 0xbe,
  0x98, 0xf3, 0xfe, 0x3d, 0x39, 0x0f, 0x97, 0x3d, 0x45, 0x76, 0x60, 0xbe,
  0x01, 0x5e, 0x27, 0xbd, 0xd8, 0x42, 0x38, 0x3c, 0x76, 0x36, 0xe8, 0xbd,
  0x4a, 0xa4, 0x4a, 0xbe, 0xc3, 0x56, 0x45, 0xbe, 0xf4, 0x29, 0x80, 0xbe,
  0xbb, 0x1c, 0x22, 0xbd, 0x3f, 0x78, 0x32, 0x3d, 0xa7, 0x71, 0xa2, 0xbe,
  0xe3, 0xca, 0x80, 0xbc, 0xdd, 0x46, 0x27, 0xbd, 0x18, 0x84, 0xa3, 0xbe,
  0x4a, 0x2d, 0x22, 0x3d, 0x26, 0xc4, 0x65, 0xbe, 0xc2, 0x9b, 0x52, 0xbd,
  0x93, 0xd9, 0x99, 0x3d, 0xce, 0x4b, 0x95, 0x3d, 0xde, 0x3c, 0x28, 0xbe,
  0x0d, 0x9c, 0x78, 0xbd, 0x32, 0xc7, 0x09, 0x3e, 0xe3, 0x13, 0x04, 0xbe,
  0xc5, 0x75, 0xc5, 0x3d, 0xeb, 0x8d, 0xc8, 0xbd, 0x10, 0x27, 0xd3, 0x3d,
  0x1d, 0x31, 0x66, 0x3e, 0x73, 0x56, 0x3f, 0x3d, 0xe2, 0x7b, 0xa2, 0x3e,
  0xba, 0x61, 0xf5, 0xbd, 0x3d, 0x03, 0x5a, 0xbe, 0x4d, 0x29, 0x45, 0x3e,
  0xd7, 0xe8, 0xee, 0xbd, 0x83, 0x80, 0xde, 0xbb, 0x0a, 0x24, 0xdf, 0x3d,
  0x4e, 0x10, 0x26, 0xbe, 0x96, 0x46, 0xf9, 0x3d, 0x18, 0x90, 0x2a, 0x3d,
  0xc4, 0xc2, 0x10, 0xbe, 0x05, 0x22, 0x22, 0x3e, 0x53, 0x84, 0x71, 0x3e,
  0x9a, 0xc3, 0x17, 0x3e, 0x7b, 0x14, 0x46, 0x3e, 0x45, 0xf5, 0x96, 0x3e,
  0xf0, 0x56, 0xaa, 0x3d, 0xd0, 0xb6, 0xef, 0x3d, 0x70, 0x87, 0x04, 0x3e,
  0x77, 0x4b, 0x0a, 0x3d, 0x6e, 0xd9, 0x1b, 0xbe, 0x47, 0xc1, 0x3f, 0x3e,
  0xf6, 0x44, 0x8d, 0x3c, 0x9f, 0x24, 0xda, 0xbc, 0x8c, 0x34, 0xcb, 0x3e,
  0xa0, 0x64, 0xe7, 0x3d, 0xf4, 0x5f, 0xc2, 0x3d, 0x64, 0xc5, 0x1e, 0x3f,
  0x2e, 0x29, 0x0c, 0x3d, 0x58, 0x89, 0x26, 0xbe, 0x03, 0x51, 0xec, 0x3e,
  0x7f, 0xb7, 0xcc, 0x3d, 0xfc, 0x8e, 0x0a, 0x3d, 0x97, 0xf3, 0xd4, 0x3e,
  0xef, 0x0b, 0xda, 0x3d, 0x3a, 0xd7, 0x18, 0xbe, 0x51, 0xd3, 0x09, 0x3f,
  0xf3, 0x8f, 0x8e, 0x3b, 0xa1, 0xe3, 0x1b, 0xbf, 0x3a, 0x53, 0xd2, 0x3e,
  0x7c, 0x18, 0x34, 0xbc, 0x46, 0xde, 0x13, 0xbf, 0x74, 0xf0, 0xaa, 0x3e,
  0xf3, 0x93, 0xc4, 0x3d, 0xa9, 0x88, 0x70, 0xbe, 0xa1, 0x7e, 0xa0, 0xbe,
  0x4b, 0x5d, 0x2e, 0xbd, 0x4a, 0x5b, 0xe1, 0xbe, 0xcb, 0x2a, 0x91, 0xbe,
  0x02, 0x33, 0x2b, 0x3e, 0x81, 0x80, 0xd0, 0xbe, 0x8f, 0x95, 0xa1, 0xbe,
  0x8f, 0xf7, 0xc3, 0xbb, 0x89, 0x40, 0x22, 0x3e, 0xb2, 0xfe, 0x12, 0xbf,
  0x22, 0xd3, 0x14, 0xbd, 0x72, 0xf2, 0xe9, 0x3e, 0xab, 0x6a, 0x0b, 0xbf,
  0x2d, 0xb8, 0x04, 0xbe, 0xbf, 0xfa, 0x03, 0x3f, 0xa5, 0xef, 0x0d, 0xbf,
  0x56, 0x24, 0x06, 0xbe, 0x50, 0xa9, 0xd6, 0x3e, 0x75, 0x32, 0x94, 0xbe,
  0x22, 0xa4, 0x03, 0xbe, 0x9b, 0x87, 0x0d, 0x3f, 0x8d, 0xd3, 0xc2, 0xbe,
  0x30, 0x16, 0x2d, 0x3e, 0x4d, 0x45, 0xb0, 0x3e, 0x80, 0x1e, 0x15, 0xbf,
  0xd9, 0x18, 0x37, 0x3e, 0xa5, 0x47, 0xed, 0x3d, 0xc9, 0x2b, 0x87, 0xbe,
  0xbd, 0xe7, 0xca, 0x3e, 0x54, 0xe2, 0x84, 0x3e, 0xf9, 0x57, 0x23, 0xbd,
  0x99, 0x4e, 0xbe, 0x3e, 0xb6, 0xed, 0xc2, 0x3e, 0x91, 0xa0, 0x87, 0xbe,
  0x09, 0x64, 0x8a, 0x3e, 0x3a, 0x56, 0xbe, 0x3e, 0x6a, 0xb5, 0xf0, 0xbd,
  0x0e, 0x76, 0xe4, 0x3d, 0xc7, 0xe9, 0xa6, 0x3e, 0x0e, 0x2f, 0xf1, 0x3d,
  0xa3, 0x19, 0xd3, 0x3d, 0xe0, 0x3b, 0x06, 0x3f, 0xbf, 0x70, 0xce, 0x3d,
  0xe2, 0x16, 0xb8, 0x3e, 0xf5, 0xbd, 0x9d, 0x3e, 0x79, 0xe3, 0x93, 0xbd,
  0x67, 0xb3, 0x5c, 0x3e, 0x1b, 0x38, 0xe1, 0x3e, 0xe9, 0xb2, 0x82, 0xbe,
  0x53, 0x8f, 0x8e, 0xbd, 0xee, 0x44, 0xa2, 0x3e, 0xa3, 0x65, 0x1d, 0xbe,
  0x24, 0x1f, 0xdd, 0x3d, 0x9a, 0xaf, 0x8f, 0x3d, 0x53, 0x2a, 0xbe, 0xbd,
  0x71, 0x50, 0x2e, 0xbe, 0x63, 0xc5, 0x75, 0x3e, 0xfd, 0x6b, 0x5f, 0xbe,
  0x52, 0xa6, 0x06, 0xbe, 0x76, 0x6e, 0xec, 0x3c, 0xbb, 0x2c, 0x3f, 0xbe,
  0xd9, 0x66, 0x86, 0x3d, 0x13, 0x23, 0x87, 0x3d, 0x21, 0xfb, 0x0c, 0xbe,
  0x52, 0x60, 0x80, 0xbd, 0xc4, 0x25, 0x2f, 0xbe, 0x0b, 0x60, 0xe3, 0x3b,
  0xee, 0x29, 0x6b, 0x3e, 0x66, 0xbf, 0x2a, 0xbd, 0x77, 0x38, 0xac, 0xbc,
  0x67, 0x4f, 0x12, 0xbe, 0x5a, 0x3b, 0x8d, 0xbe, 0x6d, 0x4d, 0x93, 0x3d,
  0xc0, 0x7a, 0x8e, 0x3e, 0x12, 0xb4, 0xb5, 0xbe, 0xad, 0xba, 0x29, 0x3e,
  0x31, 0xce, 0x2e, 0x3d, 0xd3, 0x8d, 0xe0, 0xbe, 0x7e, 0xd3, 0xa0, 0x3e,
  0xe6, 0xb7, 0xde, 0x3d, 0x96, 0x7d, 0xbf, 0xbe, 0xeb, 0x94, 0xdc, 0x3e,
  0x4c, 0x50, 0xae, 0x3d, 0x83, 0x11, 0xa0, 0xbe, 0x23, 0x99, 0x1c, 0x3f,
  0x23, 0x86, 0x04, 0x3b, 0x75, 0xe6, 0x66, 0x3d, 0xce, 0x72, 0x0b, 0x3f,
  0x7e, 0x5e, 0x55, 0xbe, 0xf5, 0x07, 0x53, 0xbd, 0x31, 0xf0, 0x17, 0x3f,
  0xef, 0xb4, 0xf5, 0x3d, 0x75, 0x4b, 0xa5, 0x3d, 0x98, 0x31, 0x43, 0x3f,
  0xe7, 0x16, 0x04, 0xbe, 0x67, 0x31, 0x93, 0x3d, 0x98, 0x70, 0x07, 0x3f,
  0x94, 0x20, 0x13, 0xbe, 0x31, 0x41, 0x1a, 0x3e, 0x66, 0x7b, 0x1c, 0x3f,
  0x81, 0x88, 0x24, 0xbe, 0x55, 0x94, 0x73, 0x3e, 0xbf, 0x9b, 0x04, 0x3f,
  0x83, 0x30, 0xac, 0xbe, 0xb7, 0xf6, 0x1e, 0xbe, 0x73, 0x2c, 0x09, 0x3f,
  0x87, 0x99, 0xd4, 0xbd, 0xf4, 0xd5, 0x09, 0xbe, 0x83, 0x4f, 0x1e, 0x3f,
  0xda, 0x87, 0xa4, 0xbc, 0xc7, 0x4e, 0x7c, 0xbe, 0x3c, 0xaa, 0x39, 0x3f,
  0x9c, 0x5f, 0x1f, 0xbe, 0x0a, 0x1c, 0xfe, 0xbc, 0x8b, 0xf2, 0x59, 0x3d,
  0x08, 0x11, 0x1b, 0x3d, 0x0d, 0x4e, 0xe0, 0xbd, 0x7e, 0xe2, 0x1a, 0x3e,
  0x92, 0xbe, 0x54, 0x3e, 0xf4, 0x49, 0x52, 0x3d, 0xa9, 0x3d, 0x5b, 0x3b,
  0xfe, 0x79, 0x98, 0x3d, 0x5b, 0x86, 0x66, 0xbd, 0xb5, 0x93, 0x5c, 0xbe,
  0x42, 0x48, 0xb9, 0xbd, 0x2a, 0x96, 0x06, 0x3e, 0x17, 0x95, 0x2a, 0xbe,
  0xec, 0x4b, 0xe1, 0xbd, 0xd4, 0xaa, 0x99, 0xbd, 0xf0, 0xaf, 0x3e, 0xbe,
  0xe0, 0xd7, 0xf5, 0xbd, 0xaf, 0x60, 0x8a, 0xbd, 0x00, 0x99, 0x0b, 0xbe,
  0xf7, 0xab, 0x92, 0xbe, 0x35, 0x7e, 0x84, 0x3e, 0x2a, 0x12, 0x74, 0xbe,
  0x9b, 0x58, 0x44, 0xbe, 0x3f, 0x11, 0xe8, 0x3b, 0xbd, 0x97, 0x20, 0x3d,
  0x85, 0x04, 0x3f, 0xbe, 0x9e, 0x33, 0x68, 0x3e, 0xfb, 0x46, 0x44, 0xbb,
  0x9f, 0x3d, 0x98, 0xbe, 0xd6, 0xfd, 0x1f, 0xbe, 0x8c, 0x36, 0xf8, 0x3d,
  0x7d, 0x6e, 0xa9, 0x3c, 0x33, 0x00, 0x2b, 0x3e, 0xff, 0x6e, 0xc2, 0xbd,
  0x00, 0xf0, 0xe8, 0xbd, 0x6d, 0x45, 0x15, 0xbd, 0x64, 0xe8, 0x16, 0x3e,
  0x86, 0x02, 0x11, 0x3d, 0x36, 0x01, 0x5d, 0xbc, 0x18, 0x21, 0x9b, 0xbd,
  0x23, 0xad, 0xe9, 0x3d, 0xdb, 0x2c, 0x99, 0x3e, 0xce, 0x0d, 0x09, 0xbe,
  0xc9, 0xbe, 0x23, 0xbe, 0x1c, 0xad, 0x78, 0x3e, 0xc5, 0xff, 0x87, 0xbd,
  0xda, 0x36, 0x53, 0x3c, 0x5a, 0x5c, 0x1c, 0x3e, 0xa1, 0x7f, 0x15, 0x3e,
  0x7b, 0x52, 0x60, 0xbd, 0xc5, 0xe2, 0xd8, 0x3d, 0x60, 0xdd, 0xaf, 0x3d,
  0xc0, 0x30, 0x02, 0x3d, 0xf9, 0x6f, 0x1a, 0x3e, 0x17, 0x9d, 0x7e, 0xbd,
  0x62, 0xc2, 0x56, 0xbb, 0xd8, 0xdc, 0xff, 0x3c, 0xd5, 0xd2, 0x5e, 0x3d,
  0xc8, 0xcd, 0x6e, 0xbd, 0xa8, 0x0c, 0x49, 0x3d, 0x79, 0x3a, 0x2f, 0x3d,
  0x0b, 0x9a, 0x6d, 0x3d, 0x83, 0xf2, 0x97, 0x3d, 0x4c, 0xc5, 0x39, 0x3d,
  0x41, 0x30, 0x48, 0xbd, 0x4c, 0xf6, 0x5f, 0xbc, 0xc3, 0x06, 0x29, 0xbe,
  0x5b, 0xb2, 0x40, 0xbe, 0x3b, 0x3a, 0xa3, 0xbd, 0x68, 0x85, 0xc1, 0xbd,
  0xb0, 0x0c, 0x71, 0xbd, 0x0c, 0x0e, 0x13, 0x3e, 0xe5, 0xd3, 0x12, 0x3d,
  0xd2, 0x97, 0x8d, 0x3d, 0x68, 0xc8, 0x07, 0xbd, 0xe6, 0xd8, 0x73, 0xbc,
  0xc9, 0x9e, 0xee, 0xbd, 0x75, 0x8a, 0xa0, 0x3d, 0xe1, 0x71, 0xb8, 0xbd,
  0xc3, 0x86, 0x20, 0xbe, 0x92, 0x7c, 0x24, 0x3e, 0xef, 0xdf, 0x69, 0x3e,
  0x66, 0xf5, 0xe4, 0x3d, 0x13, 0x6f, 0x46, 0x3c, 0x32, 0x02, 0x7a, 0xbd,
  0x0a, 0x4a, 0x67, 0xbe, 0xdc, 0x90, 0xb2, 0x3b, 0xc7, 0x4c, 0x3c, 0x3b,
  0xd2, 0x9d, 0x63, 0xbe, 0x32, 0x1e, 0x43, 0x3e, 0x0c, 0x55, 0x8b, 0x3e,
  0xd5, 0x20, 0x48, 0xbd, 0x27, 0x76, 0x46, 0xbe, 0x5d, 0x65, 0x55, 0xbb,
  0xa7, 0xbb, 0xd8, 0xbd, 0x95, 0x6a, 0x0a, 0xbe, 0xfe, 0xfe, 0xaf, 0x3a,
  0xe4, 0xce, 0x68, 0xbd, 0xd0, 0x77, 0xf6, 0xbc, 0xb9, 0x04, 0xa4, 0x3c,
  0xda, 0x45, 0x13, 0x3d, 0x7e, 0x2a, 0x3c, 0xbe, 0x02, 0x70, 0x32, 0x3e,
  0xd0, 0x29, 0xf0, 0xbd, 0xf8, 0x67, 0x78, 0xbd, 0x68, 0xff, 0xa5, 0x3e,
  0x05, 0x86, 0xf6, 0xbd, 0x76, 0xe1, 0x21, 0xbe, 0x9f, 0x8b, 0xb3, 0x3b,
  0x7b, 0xf3, 0xe6, 0x3d, 0x20, 0xc7, 0xba, 0x3d, 0xd4, 0xd9, 0x49, 0x3e,
  0x74, 0x19, 0x20, 0xbe, 0x63, 0x4c, 0x75, 0xbd, 0xda, 0x1f, 0x6e, 0x3e,
  0x9c, 0x61, 0x0f, 0xbe, 0x0c, 0xbd, 0x56, 0xbe, 0x02, 0x7b, 0xb0, 0xbb,
  0xd2, 0xfe, 0xff, 0xff, 0x10, 0x00, 0x00, 0x00, 0x05, 0x00, 0x00, 0x00,
  0x14, 0x00, 0x00, 0x00, 0x2c, 0x00, 0x00, 0x00, 0x02, 0x00, 0x00, 0x00,
  0x0a, 0x00, 0x00, 0x00, 0x78, 0x00, 0x00, 0x00, 0x17, 0x00, 0x00, 0x00,
  0x73, 0x65, 0x71, 0x75, 0x65, 0x6e, 0x74, 0x69, 0x61, 0x6c, 0x2f, 0x64,
  0x65, 0x6e, 0x73, 0x65, 0x2f, 0x4d, 0x61, 0x74, 0x4d, 0x75, 0x6c, 0x00,
  0x60, 0xfe, 0xff, 0xff, 0x2e, 0xff, 0xff, 0xff, 0x04, 0x00, 0x00, 0x00,
  0x28, 0x00, 0x00, 0x00, 0xb1, 0x2f, 0x17, 0xbd, 0xd8, 0x9d, 0x4a, 0x3e,
  0x80, 0xab, 0x6d, 0x3e, 0xf6, 0xf0, 0x03, 0x3f, 0x0e, 0x22, 0x90, 0x3e,
  0x05, 0xbf, 0x89, 0xbd, 0x54, 0x4a, 0x1a, 0x3f, 0x61, 0x59, 0xed, 0xbb,
  0x0d, 0xc5, 0xc5, 0x3d, 0x72, 0xc7, 0xe7, 0xba, 0x46, 0xff, 0xff, 0xff,
  0x10, 0x00, 0x00, 0x00, 0x04, 0x00, 0x00, 0x00, 0x10, 0x00, 0x00, 0x00,
  0x1c, 0x00, 0x00, 0x00, 0x01, 0x00, 0x00, 0x00, 0x0a, 0x00, 0x00, 0x00,
  0x0a, 0x00, 0x00, 0x00, 0x64, 0x65, 0x6e, 0x73, 0x65, 0x2f, 0x62, 0x69,
  0x61, 0x73, 0x00, 0x00, 0xc4, 0xfe, 0xff, 0xff, 0x92, 0xff, 0xff, 0xff,
  0x04, 0x00, 0x00, 0x00, 0x28, 0x00, 0x00, 0x00, 0x95, 0x77, 0x1e, 0x3e,
  0x13, 0x71, 0x3a, 0x3f, 0x07, 0x53, 0xf9, 0x3c, 0x0e, 0x66, 0x11, 0xbd,
  0x46, 0xc1, 0x6b, 0xbd, 0xa1, 0x42, 0x1d, 0x3d, 0xb3, 0xf0, 0xc9, 0x3d,
  0xd1, 0x82, 0x32, 0x3e, 0xec, 0xc4, 0xeb, 0x3d, 0x7d, 0xde, 0x88, 0x3d,
  0xaa, 0xff, 0xff, 0xff, 0x10, 0x00, 0x00, 0x00, 0x03, 0x00, 0x00, 0x00,
  0x10, 0x00, 0x00, 0x00, 0x24, 0x00, 0x00, 0x00, 0x01, 0x00, 0x00, 0x00,
  0x0a, 0x00, 0x00, 0x00, 0x0c, 0x00, 0x00, 0x00, 0x64, 0x65, 0x6e, 0x73,
  0x65, 0x5f, 0x31, 0x2f, 0x62, 0x69, 0x61, 0x73, 0x00, 0x00, 0x00, 0x00,
  0x04, 0x00, 0x06, 0x00, 0x04, 0x00, 0x00, 0x00, 0x00, 0x00, 0x06, 0x00,
  0x08, 0x00, 0x04, 0x00, 0x06, 0x00, 0x00, 0x00, 0x04, 0x00, 0x00, 0x00,
  0x08, 0x00, 0x00, 0x00, 0x3c, 0x88, 0xcb, 0x3c, 0x48, 0x88, 0xcb, 0xbc,
  0x00, 0x00, 0x0e, 0x00, 0x14, 0x00, 0x04, 0x00, 0x00, 0x00, 0x08, 0x00,
  0x0c, 0x00, 0x10, 0x00, 0x0e, 0x00, 0x00, 0x00, 0x10, 0x00, 0x00, 0x00,
  0x02, 0x00, 0x00, 0x00, 0x10, 0x00, 0x00, 0x00, 0x20, 0x00, 0x00, 0x00,
  0x01, 0x00, 0x00, 0x00, 0x02, 0x00, 0x00, 0x00, 0x0c, 0x00, 0x00, 0x00,
  0x64, 0x65, 0x6e, 0x73, 0x65, 0x5f, 0x32, 0x2f, 0x62, 0x69, 0x61, 0x73,
  0x00, 0x00, 0x00, 0x00, 0x90, 0xff, 0xff, 0xff, 0x14, 0x00, 0x18, 0x00,
  0x04, 0x00, 0x00, 0x00, 0x08, 0x00, 0x0c, 0x00, 0x10, 0x00, 0x00, 0x00,
  0x00, 0x00, 0x14, 0x00, 0x14, 0x00, 0x00, 0x00, 0x14, 0x00, 0x00, 0x00,
  0x01, 0x00, 0x00, 0x00, 0x18, 0x00, 0x00, 0x00, 0x44, 0x00, 0x00, 0x00,
  0x34, 0x00, 0x00, 0x00, 0x02, 0x00, 0x00, 0x00, 0x01, 0x00, 0x00, 0x00,
  0x78, 0x00, 0x00, 0x00, 0x1d, 0x00, 0x00, 0x00, 0x73, 0x65, 0x72, 0x76,
  0x69, 0x6e, 0x67, 0x5f, 0x64, 0x65, 0x66, 0x61, 0x75, 0x6c, 0x74, 0x5f,
  0x64, 0x65, 0x6e, 0x73, 0x65, 0x5f, 0x69, 0x6e, 0x70, 0x75, 0x74, 0x3a,
  0x30, 0x00, 0x00, 0x00, 0x02, 0x00, 0x00, 0x00, 0xff, 0xff, 0xff, 0xff,
  0x78, 0x00, 0x00, 0x00, 0xfc, 0xff, 0xff, 0xff, 0x04, 0x00, 0x04, 0x00,
  0x04, 0x00, 0x00, 0x00
};
