const unsigned char model[] = {
  0x1c, 0x00, 0x00, 0x00, 0x54, 0x46, 0x4c, 0x33, 0x14, 0x00, 0x20, 0x00,
  0x04, 0x00, 0x08, 0x00, 0x0c, 0x00, 0x10, 0x00, 0x14, 0x00, 0x00, 0x00,
  0x18, 0x00, 0x1c, 0x00, 0x14, 0x00, 0x00, 0x00, 0x03, 0x00, 0x00, 0x00,
  0x18, 0x00, 0x00, 0x00, 0x30, 0x00, 0x00, 0x00, 0x8c, 0x01, 0x00, 0x00,
  0x30, 0x00, 0x00, 0x00, 0x34, 0x01, 0x00, 0x00, 0xa0, 0x00, 0x00, 0x00,
  0x06, 0x00, 0x00, 0x00, 0x2c, 0x0c, 0x00, 0x00, 0xa8, 0x0a, 0x00, 0x00,
  0x9c, 0x08, 0x00, 0x00, 0xac, 0x04, 0x00, 0x00, 0xdc, 0x03, 0x00, 0x00,
  0x8c, 0x02, 0x00, 0x00, 0x01, 0x00, 0x00, 0x00, 0x80, 0x01, 0x00, 0x00,
  0x1d, 0x00, 0x00, 0x00, 0x60, 0x1d, 0x00, 0x00, 0x5c, 0x1d, 0x00, 0x00,
  0x54, 0x1c, 0x00, 0x00, 0xf0, 0x1b, 0x00, 0x00, 0x80, 0x1b, 0x00, 0x00,
  0x84, 0x1a, 0x00, 0x00, 0xa4, 0x19, 0x00, 0x00, 0xa0, 0x18, 0x00, 0x00,
  0xb8, 0x17, 0x00, 0x00, 0x94, 0x14, 0x00, 0x00, 0x78, 0x13, 0x00, 0x00,
  0xe8, 0x12, 0x00, 0x00, 0x40, 0x12, 0x00, 0x00, 0x50, 0x11, 0x00, 0x00,
  0xd0, 0x0f, 0x00, 0x00, 0x30, 0x0d, 0x00, 0x00, 0x8c, 0x0c, 0x00, 0x00,
  0x1c, 0x1d, 0x00, 0x00, 0x18, 0x1d, 0x00, 0x00, 0x14, 0x1d, 0x00, 0x00,
  0x10, 0x1d, 0x00, 0x00, 0x0c, 0x1d, 0x00, 0x00, 0x08, 0x1d, 0x00, 0x00,
  0x04, 0x1d, 0x00, 0x00, 0x00, 0x1d, 0x00, 0x00, 0xfc, 0x1c, 0x00, 0x00,
  0xf8, 0x1c, 0x00, 0x00, 0xf4, 0x1c, 0x00, 0x00, 0xc8, 0x00, 0x00, 0x00,
  0x01, 0x00, 0x00, 0x00, 0x10, 0x00, 0x00, 0x00, 0x00, 0x00, 0x0a, 0x00,
  0x10, 0x00, 0x0c, 0x00, 0x08, 0x00, 0x04, 0x00, 0x0a, 0x00, 0x00, 0x00,
  0x0c, 0x00, 0x00, 0x00, 0x1c, 0x00, 0x00, 0x00, 0x20, 0x00, 0x00, 0x00,
  0x0f, 0x00, 0x00, 0x00, 0x73, 0x65, 0x72, 0x76, 0x69, 0x6e, 0x67, 0x5f,
  0x64, 0x65, 0x66, 0x61, 0x75, 0x6c, 0x74, 0x00, 0x01, 0x00, 0x00, 0x00,
  0x14, 0x00, 0x00, 0x00, 0x01, 0x00, 0x00, 0x00, 0x24, 0x00, 0x00, 0x00,
  0x08, 0x00, 0x0c, 0x00, 0x08, 0x00, 0x04, 0x00, 0x08, 0x00, 0x00, 0x00,
  0x1a, 0x00, 0x00, 0x00, 0x04, 0x00, 0x00, 0x00, 0x07, 0x00, 0x00, 0x00,
  0x64, 0x65, 0x6e, 0x73, 0x65, 0x5f, 0x39, 0x00, 0x86, 0xe4, 0xff, 0xff,
  0x04, 0x00, 0x00, 0x00, 0x18, 0x00, 0x00, 0x00, 0x64, 0x65, 0x70, 0x74,
  0x68, 0x77, 0x69, 0x73, 0x65, 0x5f, 0x63, 0x6f, 0x6e, 0x76, 0x32, 0x64,
  0x5f, 0x34, 0x5f, 0x69, 0x6e, 0x70, 0x75, 0x74, 0x00, 0x00, 0x00, 0x00,
  0x01, 0x00, 0x00, 0x00, 0x0c, 0x00, 0x00, 0x00, 0x08, 0x00, 0x0c, 0x00,
  0x04, 0x00, 0x08, 0x00, 0x08, 0x00, 0x00, 0x00, 0x08, 0x00, 0x00, 0x00,
  0x1c, 0x00, 0x00, 0x00, 0x13, 0x00, 0x00, 0x00, 0x6d, 0x69, 0x6e, 0x5f,
  0x72, 0x75, 0x6e, 0x74, 0x69, 0x6d, 0x65, 0x5f, 0x76, 0x65, 0x72, 0x73,
  0x69, 0x6f, 0x6e, 0x00, 0xe2, 0xe4, 0xff, 0xff, 0x04, 0x00, 0x00, 0x00,
  0x10, 0x00, 0x00, 0x00, 0x31, 0x2e, 0x35, 0x2e, 0x30, 0x00, 0x00, 0x00,
  0x00, 0x00, 0x00, 0x00, 0x00, 0x00, 0x00, 0x00, 0x0f, 0x00, 0x00, 0x00,
  0x4d, 0x4c, 0x49, 0x52, 0x20, 0x43, 0x6f, 0x6e, 0x76, 0x65, 0x72, 0x74,
  0x65, 0x64, 0x2e, 0x00, 0x00, 0x00, 0x0e, 0x00, 0x18, 0x00, 0x04, 0x00,
  0x08, 0x00, 0x0c, 0x00, 0x10, 0x00, 0x14, 0x00, 0x0e, 0x00, 0x00, 0x00,
  0x14, 0x00, 0x00, 0x00, 0x80, 0x00, 0x00, 0x00, 0x84, 0x00, 0x00, 0x00,
  0x88, 0x00, 0x00, 0x00, 0xb4, 0x00, 0x00, 0x00, 0x1b, 0x00, 0x00, 0x00,
  0x54, 0x1b, 0x00, 0x00, 0x08, 0x1b, 0x00, 0x00, 0x80, 0x1a, 0x00, 0x00,
  0x14, 0x1a, 0x00, 0x00, 0x08, 0x19, 0x00, 0x00, 0x28, 0x18, 0x00, 0x00,
  0x2c, 0x17, 0x00, 0x00, 0x44, 0x16, 0x00, 0x00, 0xe0, 0x15, 0x00, 0x00,
  0xbc, 0x12, 0x00, 0x00, 0x88, 0x11, 0x00, 0x00, 0x04, 0x11, 0x00, 0x00,
  0x5c, 0x10, 0x00, 0x00, 0x6c, 0x0f, 0x00, 0x00, 0xec, 0x0d, 0x00, 0x00,
  0x0c, 0x0b, 0x00, 0x00, 0x44, 0x0a, 0x00, 0x00, 0xc0, 0x08, 0x00, 0x00,
  0x64, 0x07, 0x00, 0x00, 0xb0, 0x06, 0x00, 0x00, 0x34, 0x05, 0x00, 0x00,
  0x04, 0x04, 0x00, 0x00, 0x50, 0x03, 0x00, 0x00, 0xb4, 0x02, 0x00, 0x00,
  0xe4, 0x01, 0x00, 0x00, 0x1c, 0x01, 0x00, 0x00, 0x90, 0x00, 0x00, 0x00,
  0x01, 0x00, 0x00, 0x00, 0x00, 0x00, 0x00, 0x00, 0x01, 0x00, 0x00, 0x00,
  0x1a, 0x00, 0x00, 0x00, 0x0b, 0x00, 0x00, 0x00, 0x9c, 0x09, 0x00, 0x00,
  0x24, 0x08, 0x00, 0x00, 0xe4, 0x06, 0x00, 0x00, 0x10, 0x06, 0x00, 0x00,
  0xb4, 0x04, 0x00, 0x00, 0x84, 0x03, 0x00, 0x00, 0xd0, 0x02, 0x00, 0x00,
  0x40, 0x02, 0x00, 0x00, 0x54, 0x01, 0x00, 0x00, 0xa8, 0x00, 0x00, 0x00,
  0x10, 0x00, 0x00, 0x00, 0x04, 0x00, 0x00, 0x00, 0x6d, 0x61, 0x69, 0x6e,
  0x00, 0x00, 0x00, 0x00, 0x1e, 0xf8, 0xff, 0xff, 0x00, 0x00, 0x00, 0x09,
  0x05, 0x00, 0x00, 0x00, 0x1c, 0x00, 0x00, 0x00, 0x10, 0x00, 0x00, 0x00,
  0x04, 0x00, 0x00, 0x00, 0x0e, 0xe6, 0xff, 0xff, 0x00, 0x00, 0x80, 0x3f,
  0x01, 0x00, 0x00, 0x00, 0x1a, 0x00, 0x00, 0x00, 0x01, 0x00, 0x00, 0x00,
  0x19, 0x00, 0x00, 0x00, 0x80, 0xf6, 0xff, 0xff, 0x19, 0x00, 0x00, 0x00,
  0x00, 0x00, 0x00, 0x19, 0x01, 0x00, 0x00, 0x00, 0xb8, 0xe5, 0xff, 0xff,
  0x14, 0x00, 0x00, 0x00, 0x1b, 0x00, 0x00, 0x00, 0x18, 0x00, 0x00, 0x00,
  0x40, 0x00, 0x00, 0x00, 0x30, 0x00, 0x00, 0x00, 0x02, 0x00, 0x00, 0x00,
  0x01, 0x00, 0x00, 0x00, 0x0a, 0x00, 0x00, 0x00, 0x19, 0x00, 0x00, 0x00,
  0x53, 0x74, 0x61, 0x74, 0x65, 0x66, 0x75, 0x6c, 0x50, 0x61, 0x72, 0x74,
  0x69, 0x74, 0x69, 0x6f, 0x6e, 0x65, 0x64, 0x43, 0x61, 0x6c, 0x6c, 0x3a,
  0x30, 0x00, 0x00, 0x00, 0x02, 0x00, 0x00, 0x00, 0xff, 0xff, 0xff, 0xff,
  0x0a, 0x00, 0x00, 0x00, 0x80, 0xe5, 0xff, 0xff, 0xb2, 0xf8, 0xff, 0xff,
  0x00, 0x00, 0x00, 0x08, 0x04, 0x00, 0x00, 0x00, 0x18, 0x00, 0x00, 0x00,
  0x0c, 0x00, 0x00, 0x00, 0x04, 0x00, 0x00, 0x00, 0x9c, 0xe5, 0xff, 0xff,
  0x01, 0x00, 0x00, 0x00, 0x19, 0x00, 0x00, 0x00, 0x03, 0x00, 0x00, 0x00,
  0x18, 0x00, 0x00, 0x00, 0x09, 0x00, 0x00, 0x00, 0x01, 0x00, 0x00, 0x00,
  0x40, 0xe6, 0xff, 0xff, 0x14, 0x00, 0x00, 0x00, 0x1a, 0x00, 0x00, 0x00,
  0x18, 0x00, 0x00, 0x00, 0x60, 0x00, 0x00, 0x00, 0x50, 0x00, 0x00, 0x00,
  0x02, 0x00, 0x00, 0x00, 0x01, 0x00, 0x00, 0x00, 0x0a, 0x00, 0x00, 0x00,
  0x38, 0x00, 0x00, 0x00, 0x73, 0x65, 0x71, 0x75, 0x65, 0x6e, 0x74, 0x69,
  0x61, 0x6c, 0x5f, 0x36, 0x2f, 0x64, 0x65, 0x6e, 0x73, 0x65, 0x5f, 0x39,
  0x2f, 0x4d, 0x61, 0x74, 0x4d, 0x75, 0x6c, 0x3b, 0x73, 0x65, 0x71, 0x75,
  0x65, 0x6e, 0x74, 0x69, 0x61, 0x6c, 0x5f, 0x36, 0x2f, 0x64, 0x65, 0x6e,
  0x73, 0x65, 0x5f, 0x39, 0x2f, 0x42, 0x69, 0x61, 0x73, 0x41, 0x64, 0x64,
  0x00, 0x00, 0x00, 0x00, 0x02, 0x00, 0x00, 0x00, 0xff, 0xff, 0xff, 0xff,
  0x0a, 0x00, 0x00, 0x00, 0x28, 0xe6, 0xff, 0xff, 0x66, 0xfb, 0xff, 0xff,
  0x00, 0x00, 0x00, 0x08, 0x04, 0x00, 0x00, 0x00, 0x24, 0x00, 0x00, 0x00,
  0x18, 0x00, 0x00, 0x00, 0x0c, 0x00, 0x00, 0x00, 0x00, 0x00, 0x06, 0x00,
  0x08, 0x00, 0x07, 0x00, 0x06, 0x00, 0x00, 0x00, 0x00, 0x00, 0x00, 0x01,
  0x01, 0x00, 0x00, 0x00, 0x18, 0x00, 0x00, 0x00, 0x03, 0x00, 0x00, 0x00,
  0x17, 0x00, 0x00, 0x00, 0x08, 0x00, 0x00, 0x00, 0x02, 0x00, 0x00, 0x00,
  0xcc, 0xf7, 0xff, 0xff, 0x09, 0x00, 0x00, 0x00, 0x00, 0x00, 0x00, 0x09,
  0x01, 0x00, 0x00, 0x00, 0x04, 0xe7, 0xff, 0xff, 0x14, 0x00, 0x00, 0x00,
  0x19, 0x00, 0x00, 0x00, 0x18, 0x00, 0x00, 0x00, 0x78, 0x00, 0x00, 0x00,
  0x68, 0x00, 0x00, 0x00, 0x02, 0x00, 0x00, 0x00, 0x01, 0x00, 0x00, 0x00,
  0x05, 0x00, 0x00, 0x00, 0x52, 0x00, 0x00, 0x00, 0x73, 0x65, 0x71, 0x75,
  0x65, 0x6e, 0x74, 0x69, 0x61, 0x6c, 0x5f, 0x36, 0x2f, 0x64, 0x65, 0x6e,
  0x73, 0x65, 0x5f, 0x38, 0x2f, 0x4d, 0x61, 0x74, 0x4d, 0x75, 0x6c, 0x3b,
  0x73, 0x65, 0x71, 0x75, 0x65, 0x6e, 0x74, 0x69, 0x61, 0x6c, 0x5f, 0x36,
  0x2f, 0x64, 0x65, 0x6e, 0x73, 0x65, 0x5f, 0x38, 0x2f, 0x52, 0x65, 0x6c,
  0x75, 0x3b, 0x73, 0x65, 0x71, 0x75, 0x65, 0x6e, 0x74, 0x69, 0x61, 0x6c,
  0x5f, 0x36, 0x2f, 0x64, 0x65, 0x6e, 0x73, 0x65, 0x5f, 0x38, 0x2f, 0x42,
  0x69, 0x61, 0x73, 0x41, 0x64, 0x64, 0x00, 0x00, 0x02, 0x00, 0x00, 0x00,
  0xff, 0xff, 0xff, 0xff, 0x05, 0x00, 0x00, 0x00, 0x14, 0xe8, 0xff, 0xff,
  0x00, 0x00, 0x0a, 0x00, 0x10, 0x00, 0x04, 0x00, 0x08, 0x00, 0x0c, 0x00,
  0x0a, 0x00, 0x00, 0x00, 0x03, 0x00, 0x00, 0x00, 0x10, 0x00, 0x00, 0x00,
  0x04, 0x00, 0x00, 0x00, 0x01, 0x00, 0x00, 0x00, 0x17, 0x00, 0x00, 0x00,
  0x02, 0x00, 0x00, 0x00, 0x16, 0x00, 0x00, 0x00, 0x03, 0x00, 0x00, 0x00,
  0x98, 0xf8, 0xff, 0xff, 0x16, 0x00, 0x00, 0x00, 0x00, 0x00, 0x00, 0x16,
  0x01, 0x00, 0x00, 0x00, 0xd0, 0xe7, 0xff, 0xff, 0x14, 0x00, 0x00, 0x00,
  0x18, 0x00, 0x00, 0x00, 0x18, 0x00, 0x00, 0x00, 0x44, 0x00, 0x00, 0x00,
  0x34, 0x00, 0x00, 0x00, 0x02, 0x00, 0x00, 0x00, 0x01, 0x00, 0x00, 0x00,
  0x24, 0x00, 0x00, 0x00, 0x1e, 0x00, 0x00, 0x00, 0x73, 0x65, 0x71, 0x75,
  0x65, 0x6e, 0x74, 0x69, 0x61, 0x6c, 0x5f, 0x36, 0x2f, 0x66, 0x6c, 0x61,
  0x74, 0x74, 0x65, 0x6e, 0x5f, 0x34, 0x2f, 0x52, 0x65, 0x73, 0x68, 0x61,
  0x70, 0x65, 0x00, 0x00, 0x02, 0x00, 0x00, 0x00, 0xff, 0xff, 0xff, 0xff,
  0x24, 0x00, 0x00, 0x00, 0x9c, 0xe7, 0xff, 0xff, 0xce, 0xfa, 0xff, 0xff,
  0x00, 0x00, 0x00, 0x05, 0x02, 0x00, 0x00, 0x00, 0x2c, 0x00, 0x00, 0x00,
  0x20, 0x00, 0x00, 0x00, 0x04, 0x00, 0x00, 0x00, 0xca, 0xfc, 0xff, 0xff,
  0x02, 0x00, 0x00, 0x00, 0x02, 0x00, 0x00, 0x00, 0x02, 0x00, 0x00, 0x00,
  0x02, 0x00, 0x00, 0x00, 0x00, 0x00, 0x00, 0x01, 0x01, 0x00, 0x00, 0x00,
  0x16, 0x00, 0x00, 0x00, 0x01, 0x00, 0x00, 0x00, 0x15, 0x00, 0x00, 0x00,
  0x68, 0xe8, 0xff, 0xff, 0x14, 0x00, 0x00, 0x00, 0x17, 0x00, 0x00, 0x00,
  0x20, 0x00, 0x00, 0x00, 0x5c, 0x00, 0x00, 0x00, 0x44, 0x00, 0x00, 0x00,
  0x04, 0x00, 0x00, 0x00, 0x01, 0x00, 0x00, 0x00, 0x03, 0x00, 0x00, 0x00,
  0x03, 0x00, 0x00, 0x00, 0x04, 0x00, 0x00, 0x00, 0x25, 0x00, 0x00, 0x00,
  0x73, 0x65, 0x71, 0x75, 0x65, 0x6e, 0x74, 0x69, 0x61, 0x6c, 0x5f, 0x36,
  0x2f, 0x6d, 0x61, 0x78, 0x5f, 0x70, 0x6f, 0x6f, 0x6c, 0x69, 0x6e, 0x67,
  0x32, 0x64, 0x5f, 0x31, 0x30, 0x2f, 0x4d, 0x61, 0x78, 0x50, 0x6f, 0x6f,
  0x6c, 0x00, 0x00, 0x00, 0x04, 0x00, 0x00, 0x00, 0xff, 0xff, 0xff, 0xff,
  0x03, 0x00, 0x00, 0x00, 0x03, 0x00, 0x00, 0x00, 0x04, 0x00, 0x00, 0x00,
  0x4c, 0xe8, 0xff, 0xff, 0x7e, 0xfb, 0xff, 0xff, 0x00, 0x00, 0x00, 0x01,
  0x01, 0x00, 0x00, 0x00, 0x24, 0x00, 0x00, 0x00, 0x18, 0x00, 0x00, 0x00,
  0x04, 0x00, 0x00, 0x00, 0x70, 0xfb, 0xff, 0xff, 0x01, 0x00, 0x00, 0x00,
  0x01, 0x00, 0x00, 0x00, 0x00, 0x00, 0x01, 0x01, 0x01, 0x00, 0x00, 0x00,
  0x15, 0x00, 0x00, 0x00, 0x03, 0x00, 0x00, 0x00, 0x14, 0x00, 0x00, 0x00,
  0x0e, 0x00, 0x00, 0x00, 0x07, 0x00, 0x00, 0x00, 0x18, 0xe9, 0xff, 0xff,
  0x14, 0x00, 0x00, 0x00, 0x16, 0x00, 0x00, 0x00, 0x20, 0x00, 0x00, 0x00,
  0xd8, 0x00, 0x00, 0x00, 0xc0, 0x00, 0x00, 0x00, 0x04, 0x00, 0x00, 0x00,
  0x01, 0x00, 0x00, 0x00, 0x07, 0x00, 0x00, 0x00, 0x07, 0x00, 0x00, 0x00,
  0x04, 0x00, 0x00, 0x00, 0xa1, 0x00, 0x00, 0x00, 0x73, 0x65, 0x71, 0x75,
  0x65, 0x6e, 0x74, 0x69, 0x61, 0x6c, 0x5f, 0x36, 0x2f, 0x61, 0x63, 0x74,
  0x69, 0x76, 0x61, 0x74, 0x69, 0x6f, 0x6e, 0x5f, 0x32, 0x32, 0x2f, 0x52,
  0x65, 0x6c, 0x75, 0x3b, 0x73, 0x65, 0x71, 0x75, 0x65, 0x6e, 0x74, 0x69,
  0x61, 0x6c, 0x5f, 0x36, 0x2f, 0x62, 0x61, 0x74, 0x63, 0x68, 0x5f, 0x6e,
  0x6f, 0x72, 0x6d, 0x61, 0x6c, 0x69, 0x7a, 0x61, 0x74, 0x69, 0x6f, 0x6e,
  0x5f, 0x32, 0x32, 0x2f, 0x46, 0x75, 0x73, 0x65, 0x64, 0x42, 0x61, 0x74,
  0x63, 0x68, 0x4e, 0x6f, 0x72, 0x6d, 0x56, 0x33, 0x3b, 0x63, 0x6f, 0x6e,
  0x76, 0x32, 0x64, 0x5f, 0x32, 0x32, 0x2f, 0x62, 0x69, 0x61, 0x73, 0x3b,
  0x73, 0x65, 0x71, 0x75, 0x65, 0x6e, 0x74, 0x69, 0x61, 0x6c, 0x5f, 0x36,
  0x2f, 0x63, 0x6f, 0x6e, 0x76, 0x32, 0x64, 0x5f, 0x32, 0x32, 0x2f, 0x42,
  0x69, 0x61, 0x73, 0x41, 0x64, 0x64, 0x3b, 0x73, 0x65, 0x71, 0x75, 0x65,
  0x6e, 0x74, 0x69, 0x61, 0x6c, 0x5f, 0x36, 0x2f, 0x63, 0x6f, 0x6e, 0x76,
  0x32, 0x64, 0x5f, 0x32, 0x32, 0x2f, 0x43, 0x6f, 0x6e, 0x76, 0x32, 0x44,
  0x31, 0x00, 0x00, 0x00, 0x04, 0x00, 0x00, 0x00, 0xff, 0xff, 0xff, 0xff,
  0x07, 0x00, 0x00, 0x00, 0x07, 0x00, 0x00, 0x00, 0x04, 0x00, 0x00, 0x00,
  0x78, 0xe9, 0xff, 0xff, 0xaa, 0xfc, 0xff, 0xff, 0x00, 0x00, 0x00, 0x01,
  0x01, 0x00, 0x00, 0x00, 0x24, 0x00, 0x00, 0x00, 0x18, 0x00, 0x00, 0x00,
  0x04, 0x00, 0x00, 0x00, 0x9c, 0xfc, 0xff, 0xff, 0x01, 0x00, 0x00, 0x00,
  0x01, 0x00, 0x00, 0x00, 0x00, 0x00, 0x01, 0x01, 0x01, 0x00, 0x00, 0x00,
  0x14, 0x00, 0x00, 0x00, 0x03, 0x00, 0x00, 0x00, 0x13, 0x00, 0x00, 0x00,
  0x0d, 0x00, 0x00, 0x00, 0x06, 0x00, 0x00, 0x00, 0x44, 0xea, 0xff, 0xff,
  0x14, 0x00, 0x00, 0x00, 0x15, 0x00, 0x00, 0x00, 0x20, 0x00, 0x00, 0x00,
  0xf4, 0x00, 0x00, 0x00, 0xdc, 0x00, 0x00, 0x00, 0x04, 0x00, 0x00, 0x00,
  0x01, 0x00, 0x00, 0x00, 0x09, 0x00, 0x00, 0x00, 0x09, 0x00, 0x00, 0x00,
  0x04, 0x00, 0x00, 0x00, 0xbf, 0x00, 0x00, 0x00, 0x73, 0x65, 0x71, 0x75,
  0x65, 0x6e, 0x74, 0x69, 0x61, 0x6c, 0x5f, 0x36, 0x2f, 0x61, 0x63, 0x74,
  0x69, 0x76, 0x61, 0x74, 0x69, 0x6f, 0x6e, 0x5f, 0x32, 0x31, 0x2f, 0x52,
  0x65, 0x6c, 0x75, 0x3b, 0x73, 0x65, 0x71, 0x75, 0x65, 0x6e, 0x74, 0x69,
  0x61, 0x6c, 0x5f, 0x36, 0x2f, 0x62, 0x61, 0x74, 0x63, 0x68, 0x5f, 0x6e,
  0x6f, 0x72, 0x6d, 0x61, 0x6c, 0x69, 0x7a, 0x61, 0x74, 0x69, 0x6f, 0x6e,
  0x5f, 0x32, 0x31, 0x2f, 0x46, 0x75, 0x73, 0x65, 0x64, 0x42, 0x61, 0x74,
  0x63, 0x68, 0x4e, 0x6f, 0x72, 0x6d, 0x56, 0x33, 0x3b, 0x63, 0x6f, 0x6e,
  0x76, 0x32, 0x64, 0x5f, 0x32, 0x31, 0x2f, 0x62, 0x69, 0x61, 0x73, 0x3b,
  0x73, 0x65, 0x71, 0x75, 0x65, 0x6e, 0x74, 0x69, 0x61, 0x6c, 0x5f, 0x36,
  0x2f, 0x63, 0x6f, 0x6e, 0x76, 0x32, 0x64, 0x5f, 0x32, 0x31, 0x2f, 0x42,
  0x69, 0x61, 0x73, 0x41, 0x64, 0x64, 0x3b, 0x73, 0x65, 0x71, 0x75, 0x65,
  0x6e, 0x74, 0x69, 0x61, 0x6c, 0x5f, 0x36, 0x2f, 0x63, 0x6f, 0x6e, 0x76,
  0x32, 0x64, 0x5f, 0x32, 0x32, 0x2f, 0x43, 0x6f, 0x6e, 0x76, 0x32, 0x44,
  0x3b, 0x73, 0x65, 0x71, 0x75, 0x65, 0x6e, 0x74, 0x69, 0x61, 0x6c, 0x5f,
  0x36, 0x2f, 0x63, 0x6f, 0x6e, 0x76, 0x32, 0x64, 0x5f, 0x32, 0x31, 0x2f,
  0x43, 0x6f, 0x6e, 0x76, 0x32, 0x44, 0x31, 0x00, 0x04, 0x00, 0x00, 0x00,
  0xff, 0xff, 0xff, 0xff, 0x09, 0x00, 0x00, 0x00, 0x09, 0x00, 0x00, 0x00,
  0x04, 0x00, 0x00, 0x00, 0xd0, 0xeb, 0xff, 0xff, 0x00, 0x00, 0x0e, 0x00,
  0x1a, 0x00, 0x08, 0x00, 0x0c, 0x00, 0x10, 0x00, 0x07, 0x00, 0x14, 0x00,
  0x0e, 0x00, 0x00, 0x00, 0x00, 0x00, 0x00, 0x05, 0x02, 0x00, 0x00, 0x00,
  0x3c, 0x00, 0x00, 0x00, 0x30, 0x00, 0x00, 0x00, 0x14, 0x00, 0x00, 0x00,
  0x00, 0x00, 0x0e, 0x00, 0x18, 0x00, 0x17, 0x00, 0x10, 0x00, 0x0c, 0x00,
  0x08, 0x00, 0x04, 0x00, 0x0e, 0x00, 0x00, 0x00, 0x02, 0x00, 0x00, 0x00,
  0x02, 0x00, 0x00, 0x00, 0x02, 0x00, 0x00, 0x00, 0x02, 0x00, 0x00, 0x00,
  0x00, 0x00, 0x00, 0x01, 0x01, 0x00, 0x00, 0x00, 0x13, 0x00, 0x00, 0x00,
  0x01, 0x00, 0x00, 0x00, 0x12, 0x00, 0x00, 0x00, 0x84, 0xfc, 0xff, 0xff,
  0x11, 0x00, 0x00, 0x00, 0x00, 0x00, 0x00, 0x11, 0x01, 0x00, 0x00, 0x00,
  0xbc, 0xeb, 0xff, 0xff, 0x14, 0x00, 0x00, 0x00, 0x14, 0x00, 0x00, 0x00,
  0x20, 0x00, 0x00, 0x00, 0x5c, 0x00, 0x00, 0x00, 0x44, 0x00, 0x00, 0x00,
  0x04, 0x00, 0x00, 0x00, 0x01, 0x00, 0x00, 0x00, 0x0b, 0x00, 0x00, 0x00,
  0x0b, 0x00, 0x00, 0x00, 0x02, 0x00, 0x00, 0x00, 0x24, 0x00, 0x00, 0x00,
  0x73, 0x65, 0x71, 0x75, 0x65, 0x6e, 0x74, 0x69, 0x61, 0x6c, 0x5f, 0x36,
  0x2f, 0x6d, 0x61, 0x78, 0x5f, 0x70, 0x6f, 0x6f, 0x6c, 0x69, 0x6e, 0x67,
  0x32, 0x64, 0x5f, 0x39, 0x2f, 0x4d, 0x61, 0x78, 0x50, 0x6f, 0x6f, 0x6c,
  0x00, 0x00, 0x00, 0x00, 0x04, 0x00, 0x00, 0x00, 0xff, 0xff, 0xff, 0xff,
  0x0b, 0x00, 0x00, 0x00, 0x0b, 0x00, 0x00, 0x00, 0x02, 0x00, 0x00, 0x00,
  0xa0, 0xeb, 0xff, 0xff, 0xd2, 0xfe, 0xff, 0xff, 0x00, 0x00, 0x00, 0x01,
  0x01, 0x00, 0x00, 0x00, 0x24, 0x00, 0x00, 0x00, 0x18, 0x00, 0x00, 0x00,
  0x04, 0x00, 0x00, 0x00, 0xc4, 0xfe, 0xff, 0xff, 0x01, 0x00, 0x00, 0x00,
  0x01, 0x00, 0x00, 0x00, 0x00, 0x00, 0x01, 0x01, 0x01, 0x00, 0x00, 0x00,
  0x12, 0x00, 0x00, 0x00, 0x03, 0x00, 0x00, 0x00, 0x11, 0x00, 0x00, 0x00,
  0x0c, 0x00, 0x00, 0x00, 0x05, 0x00, 0x00, 0x00, 0x6c, 0xec, 0xff, 0xff,
  0x14, 0x00, 0x00, 0x00, 0x13, 0x00, 0x00, 0x00, 0x20, 0x00, 0x00, 0x00,
  0xd8, 0x00, 0x00, 0x00, 0xc0, 0x00, 0x00, 0x00, 0x04, 0x00, 0x00, 0x00,
  0x01, 0x00, 0x00, 0x00, 0x16, 0x00, 0x00, 0x00, 0x16, 0x00, 0x00, 0x00,
  0x02, 0x00, 0x00, 0x00, 0xa1, 0x00, 0x00, 0x00, 0x73, 0x65, 0x71, 0x75,
  0x65, 0x6e, 0x74, 0x69, 0x61, 0x6c, 0x5f, 0x36, 0x2f, 0x61, 0x63, 0x74,
  0x69, 0x76, 0x61, 0x74, 0x69, 0x6f, 0x6e, 0x5f, 0x32, 0x30, 0x2f, 0x52,
  0x65, 0x6c, 0x75, 0x3b, 0x73, 0x65, 0x71, 0x75, 0x65, 0x6e, 0x74, 0x69,
  0x61, 0x6c, 0x5f, 0x36, 0x2f, 0x62, 0x61, 0x74, 0x63, 0x68, 0x5f, 0x6e,
  0x6f, 0x72, 0x6d, 0x61, 0x6c, 0x69, 0x7a, 0x61, 0x74, 0x69, 0x6f, 0x6e,
  0x5f, 0x32, 0x30, 0x2f, 0x46, 0x75, 0x73, 0x65, 0x64, 0x42, 0x61, 0x74,
  0x63, 0x68, 0x4e, 0x6f, 0x72, 0x6d, 0x56, 0x33, 0x3b, 0x63, 0x6f, 0x6e,
  0x76, 0x32, 0x64, 0x5f, 0x32, 0x30, 0x2f, 0x62, 0x69, 0x61, 0x73, 0x3b,
  0x73, 0x65, 0x71, 0x75, 0x65, 0x6e, 0x74, 0x69, 0x61, 0x6c, 0x5f, 0x36,
  0x2f, 0x63, 0x6f, 0x6e, 0x76, 0x32, 0x64, 0x5f, 0x32, 0x30, 0x2f, 0x42,
  0x69, 0x61, 0x73, 0x41, 0x64, 0x64, 0x3b, 0x73, 0x65, 0x71, 0x75, 0x65,
  0x6e, 0x74, 0x69, 0x61, 0x6c, 0x5f, 0x36, 0x2f, 0x63, 0x6f, 0x6e, 0x76,
  0x32, 0x64, 0x5f, 0x32, 0x30, 0x2f, 0x43, 0x6f, 0x6e, 0x76, 0x32, 0x44,
  0x31, 0x00, 0x00, 0x00, 0x04, 0x00, 0x00, 0x00, 0xff, 0xff, 0xff, 0xff,
  0x16, 0x00, 0x00, 0x00, 0x16, 0x00, 0x00, 0x00, 0x02, 0x00, 0x00, 0x00,
  0xdc, 0xed, 0xff, 0xff, 0x00, 0x00, 0x0e, 0x00, 0x18, 0x00, 0x08, 0x00,
  0x0c, 0x00, 0x10, 0x00, 0x07, 0x00, 0x14, 0x00, 0x0e, 0x00, 0x00, 0x00,
  0x00, 0x00, 0x00, 0x01, 0x01, 0x00, 0x00, 0x00, 0x30, 0x00, 0x00, 0x00,
  0x24, 0x00, 0x00, 0x00, 0x10, 0x00, 0x00, 0x00, 0x0c, 0x00, 0x10, 0x00,
  0x0e, 0x00, 0x04, 0x00, 0x08, 0x00, 0x0f, 0x00, 0x0c, 0x00, 0x00, 0x00,
  0x01, 0x00, 0x00, 0x00, 0x01, 0x00, 0x00, 0x00, 0x00, 0x00, 0x01, 0x01,
  0x01, 0x00, 0x00, 0x00, 0x11, 0x00, 0x00, 0x00, 0x03, 0x00, 0x00, 0x00,
  0x10, 0x00, 0x00, 0x00, 0x0b, 0x00, 0x00, 0x00, 0x04, 0x00, 0x00, 0x00,
  0x8c, 0xfe, 0xff, 0xff, 0x03, 0x00, 0x00, 0x00, 0x00, 0x00, 0x00, 0x03,
  0x01, 0x00, 0x00, 0x00, 0xc4, 0xed, 0xff, 0xff, 0x14, 0x00, 0x00, 0x00,
  0x12, 0x00, 0x00, 0x00, 0x20, 0x00, 0x00, 0x00, 0xf4, 0x00, 0x00, 0x00,
  0xdc, 0x00, 0x00, 0x00, 0x04, 0x00, 0x00, 0x00, 0x01, 0x00, 0x00, 0x00,
  0x18, 0x00, 0x00, 0x00, 0x18, 0x00, 0x00, 0x00, 0x02, 0x00, 0x00, 0x00,
  0xbf, 0x00, 0x00, 0x00, 0x73, 0x65, 0x71, 0x75, 0x65, 0x6e, 0x74, 0x69,
  0x61, 0x6c, 0x5f, 0x36, 0x2f, 0x61, 0x63, 0x74, 0x69, 0x76, 0x61, 0x74,
  0x69, 0x6f, 0x6e, 0x5f, 0x31, 0x39, 0x2f, 0x52, 0x65, 0x6c, 0x75, 0x3b,
  0x73, 0x65, 0x71, 0x75, 0x65, 0x6e, 0x74, 0x69, 0x61, 0x6c, 0x5f, 0x36,
  0x2f, 0x62, 0x61, 0x74, 0x63, 0x68, 0x5f, 0x6e, 0x6f, 0x72, 0x6d, 0x61,
  0x6c, 0x69, 0x7a, 0x61, 0x74, 0x69, 0x6f, 0x6e, 0x5f, 0x31, 0x39, 0x2f,
  0x46, 0x75, 0x73, 0x65, 0x64, 0x42, 0x61, 0x74, 0x63, 0x68, 0x4e, 0x6f,
  0x72, 0x6d, 0x56, 0x33, 0x3b, 0x63, 0x6f, 0x6e, 0x76, 0x32, 0x64, 0x5f,
  0x31, 0x39, 0x2f, 0x62, 0x69, 0x61, 0x73, 0x3b, 0x73, 0x65, 0x71, 0x75,
  0x65, 0x6e, 0x74, 0x69, 0x61, 0x6c, 0x5f, 0x36, 0x2f, 0x63, 0x6f, 0x6e,
  0x76, 0x32, 0x64, 0x5f, 0x31, 0x39, 0x2f, 0x42, 0x69, 0x61, 0x73, 0x41,
  0x64, 0x64, 0x3b, 0x73, 0x65, 0x71, 0x75, 0x65, 0x6e, 0x74, 0x69, 0x61,
  0x6c, 0x5f, 0x36, 0x2f, 0x63, 0x6f, 0x6e, 0x76, 0x32, 0x64, 0x5f, 0x32,
  0x30, 0x2f, 0x43, 0x6f, 0x6e, 0x76, 0x32, 0x44, 0x3b, 0x73, 0x65, 0x71,
  0x75, 0x65, 0x6e, 0x74, 0x69, 0x61, 0x6c, 0x5f, 0x36, 0x2f, 0x63, 0x6f,
  0x6e, 0x76, 0x32, 0x64, 0x5f, 0x31, 0x39, 0x2f, 0x43, 0x6f, 0x6e, 0x76,
  0x32, 0x44, 0x31, 0x00, 0x04, 0x00, 0x00, 0x00, 0xff, 0xff, 0xff, 0xff,
  0x18, 0x00, 0x00, 0x00, 0x18, 0x00, 0x00, 0x00, 0x02, 0x00, 0x00, 0x00,
  0x50, 0xef, 0xff, 0xff, 0x00, 0x00, 0x0e, 0x00, 0x14, 0x00, 0x00, 0x00,
  0x08, 0x00, 0x0c, 0x00, 0x07, 0x00, 0x10, 0x00, 0x0e, 0x00, 0x00, 0x00,
  0x00, 0x00, 0x00, 0x02, 0x34, 0x00, 0x00, 0x00, 0x28, 0x00, 0x00, 0x00,
  0x10, 0x00, 0x00, 0x00, 0x0c, 0x00, 0x14, 0x00, 0x13, 0x00, 0x08, 0x00,
  0x0c, 0x00, 0x04, 0x00, 0x0c, 0x00, 0x00, 0x00, 0x01, 0x00, 0x00, 0x00,
  0x01, 0x00, 0x00, 0x00, 0x01, 0x00, 0x00, 0x00, 0x00, 0x00, 0x00, 0x01,
  0x01, 0x00, 0x00, 0x00, 0x10, 0x00, 0x00, 0x00, 0x03, 0x00, 0x00, 0x00,
  0x00, 0x00, 0x00, 0x00, 0x0a, 0x00, 0x00, 0x00, 0x0f, 0x00, 0x00, 0x00,
  0x0c, 0x00, 0x10, 0x00, 0x0b, 0x00, 0x00, 0x00, 0x0c, 0x00, 0x04, 0x00,
  0x0c, 0x00, 0x00, 0x00, 0x04, 0x00, 0x00, 0x00, 0x00, 0x00, 0x00, 0x04,
  0x01, 0x00, 0x00, 0x00, 0x44, 0xef, 0xff, 0xff, 0x14, 0x00, 0x00, 0x00,
  0x11, 0x00, 0x00, 0x00, 0x20, 0x00, 0x00, 0x00, 0xa0, 0x00, 0x00, 0x00,
  0x88, 0x00, 0x00, 0x00, 0x04, 0x00, 0x00, 0x00, 0x01, 0x00, 0x00, 0x00,
  0x1a, 0x00, 0x00, 0x00, 0x1a, 0x00, 0x00, 0x00, 0x01, 0x00, 0x00, 0x00,
  0x6a, 0x00, 0x00, 0x00, 0x73, 0x65, 0x71, 0x75, 0x65, 0x6e, 0x74, 0x69,
  0x61, 0x6c, 0x5f, 0x36, 0x2f, 0x64, 0x65, 0x70, 0x74, 0x68, 0x77, 0x69,
  0x73, 0x65, 0x5f, 0x63, 0x6f, 0x6e, 0x76, 0x32, 0x64, 0x5f, 0x34, 0x2f,
  0x42, 0x69, 0x61, 0x73, 0x41, 0x64, 0x64, 0x3b, 0x73, 0x65, 0x71, 0x75,
  0x65, 0x6e, 0x74, 0x69, 0x61, 0x6c, 0x5f, 0x36, 0x2f, 0x64, 0x65, 0x70,
  0x74, 0x68, 0x77, 0x69, 0x73, 0x65, 0x5f, 0x63, 0x6f, 0x6e, 0x76, 0x32,
  0x64, 0x5f, 0x34, 0x2f, 0x64, 0x65, 0x70, 0x74, 0x68, 0x77, 0x69, 0x73,
  0x65, 0x3b, 0x64, 0x65, 0x70, 0x74, 0x68, 0x77, 0x69, 0x73, 0x65, 0x5f,
  0x63, 0x6f, 0x6e, 0x76, 0x32, 0x64, 0x5f, 0x34, 0x2f, 0x62, 0x69, 0x61,
  0x73, 0x31, 0x00, 0x00, 0x04, 0x00, 0x00, 0x00, 0xff, 0xff, 0xff, 0xff,
  0x1a, 0x00, 0x00, 0x00, 0x1a, 0x00, 0x00, 0x00, 0x01, 0x00, 0x00, 0x00,
  0x6c, 0xef, 0xff, 0xff, 0x76, 0xf0, 0xff, 0xff, 0x04, 0x00, 0x00, 0x00,
  0x04, 0x00, 0x00, 0x00, 0xff, 0x33, 0xc1, 0x3c, 0x4a, 0xf0, 0xff, 0xff,
  0x10, 0x00, 0x00, 0x00, 0x10, 0x00, 0x00, 0x00, 0x10, 0x00, 0x00, 0x00,
  0x7c, 0x00, 0x00, 0x00, 0x01, 0x00, 0x00, 0x00, 0x01, 0x00, 0x00, 0x00,
  0x69, 0x00, 0x00, 0x00, 0x73, 0x65, 0x71, 0x75, 0x65, 0x6e, 0x74, 0x69,
  0x61, 0x6c, 0x5f, 0x36, 0x2f, 0x64, 0x65, 0x70, 0x74, 0x68, 0x77, 0x69,
  0x73, 0x65, 0x5f, 0x63, 0x6f, 0x6e, 0x76, 0x32, 0x64, 0x5f, 0x34, 0x2f,
  0x42, 0x69, 0x61, 0x73, 0x41, 0x64, 0x64, 0x3b, 0x73, 0x65, 0x71, 0x75,
  0x65, 0x6e, 0x74, 0x69, 0x61, 0x6c, 0x5f, 0x36, 0x2f, 0x64, 0x65, 0x70,
  0x74, 0x68, 0x77, 0x69, 0x73, 0x65, 0x5f, 0x63, 0x6f, 0x6e, 0x76, 0x32,
  0x64, 0x5f, 0x34, 0x2f, 0x64, 0x65, 0x70, 0x74, 0x68, 0x77, 0x69, 0x73,
  0x65, 0x3b, 0x64, 0x65, 0x70, 0x74, 0x68, 0x77, 0x69, 0x73, 0x65, 0x5f,
  0x63, 0x6f, 0x6e, 0x76, 0x32, 0x64, 0x5f, 0x34, 0x2f, 0x62, 0x69, 0x61,
  0x73, 0x00, 0x00, 0x00, 0x0c, 0xf0, 0xff, 0xff, 0x16, 0xf1, 0xff, 0xff,
  0x04, 0x00, 0x00, 0x00, 0x40, 0x02, 0x00, 0x00, 0x3b, 0xda, 0xe3, 0xbe,
  0x6d, 0x53, 0x3f, 0x3e, 0xbb, 0x33, 0x61, 0x3e, 0x9c, 0x1f, 0x92, 0xbe,
  0x79, 0x8a, 0xe6, 0x3d, 0x04, 0x8f, 0x2e, 0x3f, 0xab, 0x4f, 0x76, 0x3f,
  0xd9, 0xfa, 0x4a, 0x3e, 0x0c, 0x6d, 0xec, 0xbe, 0xa9, 0x95, 0xc8, 0xbe,
  0x20, 0x3e, 0x74, 0x3e, 0x57, 0xaa, 0x1a, 0xbe, 0x9a, 0x6a, 0x03, 0xbf,
  0xb0, 0x7c, 0x3f, 0x3e, 0x6e, 0x24, 0x03, 0x3d, 0x6d, 0x53, 0x64, 0x3e,
  0xad, 0x16, 0x03, 0xbf, 0xe7, 0xca, 0xfe, 0xbc, 0x77, 0x96, 0x34, 0xbf,
  0x7c, 0xc3, 0xe7, 0xbd, 0x64, 0x50, 0x32, 0x3e, 0xf2, 0x60, 0x43, 0xbf,
  0x31, 0xd2, 0x0e, 0x3f, 0x8e, 0x18, 0x83, 0x3f, 0xd3, 0x54, 0x46, 0x3f,
  0xda, 0xd2, 0x12, 0x3f, 0xff, 0xe2, 0x9b, 0xbe, 0x6f, 0xf9, 0xd4, 0x3f,
  0xe1, 0x90, 0xbc, 0x3d, 0x82, 0xa1, 0x46, 0x3e, 0xb3, 0x92, 0xd4, 0xbe,
  0xc2, 0x84, 0x53, 0x3e, 0xc4, 0x30, 0x52, 0xbe, 0x2b, 0xb6, 0xf6, 0x3d,
  0xe8, 0xa4, 0x18, 0xbe, 0x9f, 0x6f, 0x6d, 0x3f, 0xb2, 0xb3, 0x09, 0xbf,
  0x7d, 0x51, 0x4c, 0xbf, 0x44, 0x58, 0x20, 0xbe, 0x7b, 0x7a, 0x9e, 0x3e,
  0x1c, 0x0d, 0x78, 0xbe, 0xa2, 0x83, 0xa4, 0xbe, 0xf7, 0x1a, 0xab, 0xbe,
  0x25, 0x0f, 0xc2, 0x3d, 0x35, 0x42, 0x5c, 0xbf, 0x8a, 0x44, 0x88, 0xbd,
  0x69, 0xe8, 0x9c, 0x3e, 0x3e, 0xba, 0x0b, 0xbf, 0x04, 0xeb, 0x07, 0xbe,
  0x5c, 0xc3, 0xa1, 0xbe, 0xb1, 0xe5, 0xde, 0x3d, 0xed, 0x21, 0x57, 0xbe,
  0x59, 0x50, 0x0d, 0xbf, 0x02, 0xee, 0x09, 0xbf, 0x05, 0xe8, 0x07, 0xbf,
  0x2f, 0x69, 0x45, 0xbf, 0x3b, 0xa9, 0xd0, 0x3d, 0x4f, 0xeb, 0x87, 0xbe,
  0x73, 0x07, 0x0b, 0xbf, 0x30, 0xcf, 0xe8, 0xbd, 0x19, 0xff, 0x05, 0x3e,
  0x70, 0x61, 0xf7, 0x3c, 0xa7, 0xfa, 0x67, 0xbe, 0x67, 0x01, 0x64, 0x3e,
  0x6d, 0x3b, 0xb1, 0xbe, 0x6a, 0x09, 0xdb, 0xbe, 0x7d, 0xe5, 0xab, 0x3e,
  0xb8, 0x9f, 0x62, 0xbe, 0x0f, 0x4b, 0x94, 0x3e, 0x59, 0x1b, 0xe3, 0x3e,
  0x28, 0x46, 0x0d, 0x3f, 0x76, 0xf9, 0xc4, 0xbe, 0xc7, 0xd4, 0x25, 0xbf,
  0xee, 0x2c, 0xf3, 0xbe, 0x9e, 0x9a, 0x10, 0xbe, 0x75, 0x86, 0xa7, 0xbe,
  0x1a, 0x73, 0x78, 0x3e, 0x10, 0x09, 0xad, 0x3d, 0x54, 0x90, 0xc9, 0x3e,
  0x47, 0x2d, 0xa9, 0x3e, 0xc4, 0x3e, 0x05, 0xbf, 0x3f, 0xb7, 0x3b, 0x3d,
  0xd0, 0xac, 0x1e, 0x3f, 0x15, 0x6e, 0x28, 0xbf, 0x76, 0x10, 0xc3, 0xbd,
  0xbb, 0xf9, 0x81, 0x3d, 0xfc, 0x1e, 0xb1, 0x3e, 0xc9, 0x85, 0xfa, 0xbd,
  0xaf, 0x25, 0xc7, 0x3b, 0xc8, 0x9c, 0x08, 0x3d, 0x2e, 0x5e, 0x71, 0x3f,
  0xcf, 0x53, 0xbe, 0xbe, 0x3c, 0xf5, 0x17, 0x3c, 0x66, 0x8b, 0x37, 0xbd,
  0x5e, 0x1c, 0x63, 0x3e, 0xa5, 0x51, 0x9e, 0x3e, 0x15, 0xfc, 0xbf, 0xbe,
  0xe3, 0xb2, 0x37, 0x3e, 0x95, 0x82, 0x1a, 0xbe, 0x7c, 0x50, 0xa0, 0xbe,
  0x6b, 0x91, 0x61, 0xbe, 0x40, 0xb0, 0x1a, 0x3c, 0x74, 0xe2, 0x5b, 0x3f,
  0x94, 0x26, 0xbf, 0xbe, 0x8f, 0x64, 0x57, 0xbe, 0x93, 0xb9, 0x44, 0xbe,
  0xdb, 0xf5, 0xf1, 0x3e, 0xea, 0x6c, 0xfb, 0x3c, 0xaa, 0x72, 0x06, 0x3f,
  0xe0, 0xb1, 0x8a, 0xbe, 0x59, 0x62, 0x9c, 0x3e, 0x8d, 0x8a, 0x87, 0xbc,
  0x8f, 0x04, 0x64, 0x3e, 0x8a, 0x75, 0x96, 0xbd, 0xc2, 0x41, 0x1e, 0x3f,
  0x81, 0x8f, 0xa8, 0x3e, 0x4f, 0xe6, 0x08, 0xbf, 0xeb, 0x2e, 0x15, 0x3e,
  0x02, 0xbc, 0x45, 0xbf, 0x92, 0x28, 0x1d, 0x3f, 0x3f, 0xc3, 0x55, 0x3f,
  0xb5, 0xb7, 0x08, 0x3f, 0xdf, 0x34, 0x16, 0xbf, 0x9e, 0x8c, 0x69, 0x3e,
  0x4f, 0xb3, 0x89, 0xbe, 0xa5, 0x99, 0x95, 0xbf, 0x08, 0xf3, 0xe2, 0xbe,
  0x72, 0x98, 0xa4, 0xbe, 0xb6, 0x58, 0xa3, 0xbd, 0x15, 0x69, 0x76, 0xbf,
  0x69, 0x56, 0x33, 0xbf, 0x91, 0xce, 0x9b, 0xbe, 0xdd, 0x6f, 0xfc, 0x3e,
  0x08, 0xb4, 0x5b, 0x3f, 0x7a, 0x13, 0x31, 0x3f, 0x33, 0xfd, 0x10, 0xbe,
  0x8d, 0xe2, 0x1e, 0x3f, 0x4d, 0xe3, 0xfa, 0x3e, 0x35, 0x1b, 0xfa, 0x3e,
  0x67, 0x3f, 0x1e, 0x3d, 0xfd, 0x6d, 0xab, 0x3e, 0x2d, 0xfa, 0x9e, 0x3f,
  0x51, 0x36, 0x14, 0x3f, 0x0c, 0x53, 0xe3, 0x3e, 0x26, 0xf3, 0xff, 0xff,
  0x10, 0x00, 0x00, 0x00, 0x0f, 0x00, 0x00, 0x00, 0x1c, 0x00, 0x00, 0x00,
  0x3c, 0x00, 0x00, 0x00, 0x04, 0x00, 0x00, 0x00, 0x04, 0x00, 0x00, 0x00,
  0x03, 0x00, 0x00, 0x00, 0x03, 0x00, 0x00, 0x00, 0x04, 0x00, 0x00, 0x00,
  0x1d, 0x00, 0x00, 0x00, 0x73, 0x65, 0x71, 0x75, 0x65, 0x6e, 0x74, 0x69,
  0x61, 0x6c, 0x5f, 0x36, 0x2f, 0x63, 0x6f, 0x6e, 0x76, 0x32, 0x64, 0x5f,
  0x32, 0x32, 0x2f, 0x43, 0x6f, 0x6e, 0x76, 0x32, 0x44, 0x00, 0x00, 0x00,
  0xa8, 0xf2, 0xff, 0xff, 0xb2, 0xf3, 0xff, 0xff, 0x04, 0x00, 0x00, 0x00,
  0x20, 0x01, 0x00, 0x00, 0x6c, 0x2c, 0x42, 0xbe, 0x89, 0x0b, 0x80, 0x3d,
  0x3e, 0x2e, 0xaa, 0x3e, 0xd6, 0xc2, 0x43, 0x3f, 0x26, 0x10, 0x91, 0xbe,
  0x09, 0x35, 0xed, 0x3e, 0xed, 0x39, 0x5e, 0xbd, 0xeb, 0x4e, 0x68, 0xbe,
  0x4f, 0x25, 0x88, 0x3e, 0x17, 0x0c, 0x17, 0x3f, 0x7f, 0x58, 0x74, 0xbd,
  0x65, 0xac, 0x47, 0x3f, 0x10, 0x9e, 0x4d, 0xbe, 0x22, 0xb4, 0x24, 0xbf,
  0x2a, 0xdc, 0xd6, 0x3e, 0x6d, 0x5e, 0x03, 0xbf, 0xd1, 0x5c, 0x8c, 0x3e,
  0xcc, 0x6c, 0xf8, 0xbc, 0xee, 0xdc, 0xa8, 0x3e, 0x4b, 0xcd, 0x2d, 0x3b,
  0x9a, 0x72, 0x3e, 0x3e, 0x54, 0xac, 0xec, 0xbd, 0xa0, 0xf5, 0x42, 0x3e,
  0x66, 0x4f, 0xd8, 0x3d, 0xa3, 0x1a, 0xa9, 0xbd, 0xc4, 0x33, 0x03, 0x3d,
  0xef, 0x80, 0x6e, 0x3e, 0x02, 0x2c, 0x19, 0xbe, 0xd9, 0xa3, 0x78, 0xbe,
  0xb5, 0x9c, 0xa4, 0xbc, 0xeb, 0x4c, 0xbd, 0x3d, 0xf2, 0x7d, 0xa3, 0xbd,
  0x89, 0x93, 0xc2, 0xbe, 0xfa, 0x6d, 0x04, 0xbf, 0x14, 0xc2, 0x93, 0xbe,
  0xd7, 0x84, 0xd8, 0xbe, 0xc4, 0xed, 0x25, 0x3e, 0x30, 0xed, 0xa5, 0x3e,
  0x30, 0x4d, 0x63, 0x3e, 0x86, 0x69, 0xc6, 0xbc, 0x9a, 0xb9, 0x84, 0x3e,
  0xb8, 0xf7, 0x60, 0xbd, 0x0a, 0xec, 0x59, 0xbe, 0x1a, 0x7e, 0x83, 0x3e,
  0x33, 0xce, 0xc6, 0x3e, 0x33, 0xdf, 0x86, 0xbe, 0xda, 0x52, 0xf6, 0x3e,
  0xc1, 0x98, 0xed, 0xbd, 0xf6, 0x59, 0x69, 0x3e, 0xe9, 0x89, 0x35, 0x3e,
  0x31, 0x6a, 0xe8, 0x3d, 0xd1, 0xa3, 0x29, 0xbe, 0x1a, 0x3f, 0x01, 0xbc,
  0x96, 0x43, 0x00, 0xbd, 0xe5, 0xc2, 0xf9, 0xbe, 0x7f, 0x0c, 0xd7, 0x3e,
  0xdb, 0x08, 0x68, 0xbb, 0x6f, 0x03, 0x13, 0x3f, 0xc6, 0x2b, 0x85, 0xbb,
  0xc0, 0x8e, 0xfa, 0x3e, 0xff, 0x23, 0x16, 0xbf, 0x38, 0xa4, 0x01, 0x3f,
  0x82, 0xf4, 0x43, 0x3e, 0x7d, 0x19, 0x13, 0xbe, 0x3b, 0xce, 0x0a, 0x3f,
  0x03, 0x1c, 0x1b, 0xbf, 0x4f, 0x23, 0xa6, 0xbe, 0x22, 0xc7, 0xf6, 0xbe,
  0xae, 0xe4, 0xf1, 0xbe, 0x13, 0x4b, 0xc1, 0xbe, 0x12, 0x3a, 0x54, 0x3d,
  0xc3, 0x12, 0xee, 0xbd, 0xa2, 0xf4, 0xff, 0xff, 0x10, 0x00, 0x00, 0x00,
  0x0e, 0x00, 0x00, 0x00, 0x1c, 0x00, 0x00, 0x00, 0x3c, 0x00, 0x00, 0x00,
  0x04, 0x00, 0x00, 0x00, 0x04, 0x00, 0x00, 0x00, 0x03, 0x00, 0x00, 0x00,
  0x03, 0x00, 0x00, 0x00, 0x02, 0x00, 0x00, 0x00, 0x1d, 0x00, 0x00, 0x00,
  0x73, 0x65, 0x71, 0x75, 0x65, 0x6e, 0x74, 0x69, 0x61, 0x6c, 0x5f, 0x36,
  0x2f, 0x63, 0x6f, 0x6e, 0x76, 0x32, 0x64, 0x5f, 0x32, 0x31, 0x2f, 0x43,
  0x6f, 0x6e, 0x76, 0x32, 0x44, 0x00, 0x00, 0x00, 0x24, 0xf4, 0xff, 0xff,
  0x2e, 0xf5, 0xff, 0xff, 0x04, 0x00, 0x00, 0x00, 0x90, 0x00, 0x00, 0x00,
  0xe5, 0x2d, 0x41, 0x3e, 0x82, 0x5d, 0x99, 0x3e, 0xba, 0xe2, 0x51, 0x3f,
  0x95, 0xb1, 0xf8, 0x3e, 0xe0, 0x73, 0xfe, 0x3d, 0x5c, 0x79, 0xb3, 0xbe,
  0x9b, 0x69, 0x87, 0x3e, 0x05, 0xa2, 0x0b, 0x3e, 0x2d, 0x5e, 0x9a, 0x3f,
  0x83, 0xdf, 0x58, 0xbe, 0xe1, 0x4c, 0x8e, 0xbf, 0xfd, 0x0c, 0x85, 0x3f,
  0xdb, 0x44, 0x59, 0x3f, 0xdc, 0xdd, 0xc0, 0xbc, 0xd0, 0xe2, 0x2f, 0xbf,
  0x1b, 0xe5, 0x27, 0xbf, 0x2e, 0xed, 0x9c, 0xbf, 0x55, 0x9c, 0xfb, 0x3d,
  0xe5, 0x55, 0x4d, 0x3f, 0xaf, 0x93, 0x9b, 0xbf, 0x0a, 0xca, 0x92, 0x3f,
  0xbb, 0x8e, 0x24, 0x3f, 0x2a, 0x73, 0x6d, 0x3e, 0x7c, 0x14, 0x04, 0x3f,
  0xf3, 0x45, 0x9d, 0xbf, 0x5e, 0xca, 0xfb, 0x3e, 0xeb, 0x84, 0x21, 0x3f,
  0x93, 0xfa, 0xc4, 0xbf, 0xc8, 0x52, 0x34, 0x3f, 0xdc, 0x69, 0xdf, 0x3e,
  0x99, 0x90, 0x1e, 0x3f, 0xb3, 0xec, 0xba, 0xbe, 0xb7, 0x92, 0x09, 0x3f,
  0xd7, 0x44, 0x91, 0xbe, 0xaf, 0x98, 0x06, 0x3f, 0xc3, 0x72, 0xed, 0x3e,
  0x8e, 0xf5, 0xff, 0xff, 0x10, 0x00, 0x00, 0x00, 0x0d, 0x00, 0x00, 0x00,
  0x1c, 0x00, 0x00, 0x00, 0x3c, 0x00, 0x00, 0x00, 0x04, 0x00, 0x00, 0x00,
  0x02, 0x00, 0x00, 0x00, 0x03, 0x00, 0x00, 0x00, 0x03, 0x00, 0x00, 0x00,
  0x02, 0x00, 0x00, 0x00, 0x1d, 0x00, 0x00, 0x00, 0x73, 0x65, 0x71, 0x75,
  0x65, 0x6e, 0x74, 0x69, 0x61, 0x6c, 0x5f, 0x36, 0x2f, 0x63, 0x6f, 0x6e,
  0x76, 0x32, 0x64, 0x5f, 0x32, 0x30, 0x2f, 0x43, 0x6f, 0x6e, 0x76, 0x32,
  0x44, 0x00, 0x00, 0x00, 0x10, 0xf5, 0xff, 0xff, 0x1a, 0xf6, 0xff, 0xff,
  0x04, 0x00, 0x00, 0x00, 0x48, 0x00, 0x00, 0x00, 0x0d, 0x56, 0x2f, 0xbe,
  0x70, 0xc8, 0x99, 0xbe, 0x7d, 0xeb, 0x6d, 0xbe, 0x52, 0xba, 0xd4, 0xbe,
  0x3f, 0xf7, 0xb0, 0xbe, 0x56, 0x53, 0x49, 0xbe, 0x69, 0x61, 0x4b, 0xbe,
  0x82, 0x93, 0x9c, 0xbe, 0x92, 0x9c, 0x0d, 0x3e, 0xcd, 0x79, 0xdc, 0xbe,
  0xcc, 0x4f, 0x38, 0xbe, 0x09, 0x7c, 0x80, 0x3e, 0x07, 0x56, 0xc4, 0xbe,
  0xa3, 0x7c, 0x82, 0xbe, 0xb1, 0x62, 0x1b, 0xbf, 0xa4, 0x19, 0x86, 0x3e,
  0x6c, 0x78, 0xad, 0x3a, 0x0c, 0xe9, 0xee, 0xbe, 0x32, 0xf6, 0xff, 0xff,
  0x10, 0x00, 0x00, 0x00, 0x0c, 0x00, 0x00, 0x00, 0x1c, 0x00, 0x00, 0x00,
  0x3c, 0x00, 0x00, 0x00, 0x04, 0x00, 0x00, 0x00, 0x02, 0x00, 0x00, 0x00,
  0x03, 0x00, 0x00, 0x00, 0x03, 0x00, 0x00, 0x00, 0x01, 0x00, 0x00, 0x00,
  0x1d, 0x00, 0x00, 0x00, 0x73, 0x65, 0x71, 0x75, 0x65, 0x6e, 0x74, 0x69,
  0x61, 0x6c, 0x5f, 0x36, 0x2f, 0x63, 0x6f, 0x6e, 0x76, 0x32, 0x64, 0x5f,
  0x31, 0x39, 0x2f, 0x43, 0x6f, 0x6e, 0x76, 0x32, 0x44, 0x00, 0x00, 0x00,
  0xb4, 0xf5, 0xff, 0xff, 0xbe, 0xf6, 0xff, 0xff, 0x04, 0x00, 0x00, 0x00,
  0x24, 0x00, 0x00, 0x00, 0xf5, 0x79, 0xce, 0x3d, 0xea, 0x16, 0xbd, 0x3d,
  0x80, 0x9f, 0x8b, 0xbb, 0x92, 0x57, 0x02, 0xbe, 0xb3, 0x68, 0xe0, 0x3e,
  0x55, 0x5a, 0x91, 0xbe, 0x48, 0x87, 0x53, 0x3f, 0x40, 0xac, 0x0a, 0x3f,
  0x6c, 0x60, 0x6a, 0x3e, 0xb2, 0xf6, 0xff, 0xff, 0x10, 0x00, 0x00, 0x00,
  0x0b, 0x00, 0x00, 0x00, 0x1c, 0x00, 0x00, 0x00, 0x48, 0x00, 0x00, 0x00,
  0x04, 0x00, 0x00, 0x00, 0x01, 0x00, 0x00, 0x00, 0x03, 0x00, 0x00, 0x00,
  0x03, 0x00, 0x00, 0x00, 0x01, 0x00, 0x00, 0x00, 0x29, 0x00, 0x00, 0x00,
  0x73, 0x65, 0x71, 0x75, 0x65, 0x6e, 0x74, 0x69, 0x61, 0x6c, 0x5f, 0x36,
  0x2f, 0x64, 0x65, 0x70, 0x74, 0x68, 0x77, 0x69, 0x73, 0x65, 0x5f, 0x63,
  0x6f, 0x6e, 0x76, 0x32, 0x64, 0x5f, 0x34, 0x2f, 0x64, 0x65, 0x70, 0x74,
  0x68, 0x77, 0x69, 0x73, 0x65, 0x00, 0x00, 0x00, 0x40, 0xf6, 0xff, 0xff,
  0x4a, 0xf7, 0xff, 0xff, 0x04, 0x00, 0x00, 0x00, 0xc8, 0x00, 0x00, 0x00,
  0x3b, 0x42, 0xc7, 0xbe, 0x10, 0x9a, 0x37, 0xbf, 0xec, 0x09, 0x0c, 0x3f,
  0x5e, 0x06, 0x13, 0xbf, 0x6a, 0x36, 0x81, 0x3e, 0x28, 0x22, 0xf9, 0x3d,
  0x63, 0xa1, 0x11, 0x3f, 0xca, 0xf0, 0x83, 0xbf, 0xfd, 0x6f, 0x27, 0xbf,
  0xe8, 0x8b, 0x93, 0xbe, 0x32, 0x1f, 0xc8, 0x3d, 0x14, 0xea, 0xb0, 0xbe,
  0x55, 0xdb, 0x06, 0xbf, 0xd7, 0x17, 0x10, 0xbf, 0xff, 0xde, 0x25, 0x3f,
  0x05, 0xbb, 0xe2, 0x3e, 0xc7, 0x20, 0xf7, 0x3c, 0x64, 0x3e, 0x36, 0x3e,
  0x21, 0x10, 0x99, 0xbf, 0xb8, 0x8d, 0x0f, 0xbf, 0x32, 0xab, 0x34, 0xbf,
  0x8a, 0xac, 0xd2, 0x3e, 0xa9, 0x4e, 0xeb, 0xbd, 0x01, 0x8f, 0xf2, 0x3d,
  0xac, 0xbf, 0x0c, 0xbf, 0x35, 0xd8, 0xdd, 0xbd, 0x1e, 0x66, 0xea, 0xbd,
  0x94, 0x53, 0x07, 0x3f, 0x2e, 0x62, 0xd3, 0xbe, 0x73, 0x9b, 0x05, 0xbf,
  0x26, 0x9f, 0x55, 0xbf, 0x38, 0xda, 0x0c, 0xbc, 0x74, 0x95, 0x44, 0xbf,
  0x50, 0xbe, 0xd2, 0x3e, 0x7a, 0x36, 0x1d, 0x3f, 0x3d, 0x10, 0x62, 0x3f,
  0x3a, 0xcf, 0x0c, 0xbf, 0xc0, 0x39, 0x41, 0xbf, 0xbb, 0xa4, 0xff, 0x3d,
  0x5c, 0xd2, 0x08, 0xbf, 0x0d, 0x6f, 0x9f, 0x3e, 0x24, 0xf0, 0xe0, 0xbe,
  0x15, 0x72, 0x30, 0xbd, 0x95, 0x57, 0xbd, 0xbd, 0xce, 0x7e, 0xa0, 0x3d,
  0x90, 0xb0, 0x5d, 0x3e, 0x2d, 0xcd, 0xd3, 0xbe, 0x34, 0x19, 0xbe, 0xbe,
  0x9b, 0xde, 0x45, 0x3f, 0x43, 0xb7, 0x1c, 0xbf, 0xe2, 0xf7, 0xff, 0xff,
  0x10, 0x00, 0x00, 0x00, 0x0a, 0x00, 0x00, 0x00, 0x14, 0x00, 0x00, 0x00,
  0x30, 0x00, 0x00, 0x00, 0x02, 0x00, 0x00, 0x00, 0x0a, 0x00, 0x00, 0x00,
  0x05, 0x00, 0x00, 0x00, 0x1b, 0x00, 0x00, 0x00, 0x73, 0x65, 0x71, 0x75,
  0x65, 0x6e, 0x74, 0x69, 0x61, 0x6c, 0x5f, 0x36, 0x2f, 0x64, 0x65, 0x6e,
  0x73, 0x65, 0x5f, 0x39, 0x2f, 0x4d, 0x61, 0x74, 0x4d, 0x75, 0x6c, 0x00,
  0x58, 0xf7, 0xff, 0xff, 0x62, 0xf8, 0xff, 0xff, 0x04, 0x00, 0x00, 0x00,
  0xd0, 0x02, 0x00, 0x00, 0xf1, 0x92, 0xb5, 0xbd, 0xde, 0xe7, 0x05, 0x3e,
  0xbe, 0xc1, 0x44, 0x3d, 0x1e, 0x89, 0x1f, 0x3f, 0xe7, 0x07, 0xb4, 0xbe,
  0xba, 0x3c, 0x83, 0x3e, 0xac, 0x75, 0xb3, 0xbe, 0x21, 0x4d, 0x00, 0xbd,
  0xda, 0x10, 0x6f, 0xbe, 0xbe, 0xd2, 0x79, 0x3e, 0xf9, 0x2c, 0x68, 0xbf,
  0x10, 0x5b, 0x3d, 0xbe, 0x4d, 0xa0, 0xd1, 0x3d, 0x24, 0x49, 0x52, 0x3f,
  0xdb, 0x3e, 0xe0, 0xbc, 0xb8, 0xb8, 0x11, 0x3f, 0x15, 0xf8, 0x4a, 0xbe,
  0xc8, 0x47, 0x11, 0x3e, 0xcd, 0x4e, 0x20, 0x3f, 0x0a, 0x05, 0xaa, 0xbe,
  0xce, 0x9f, 0x15, 0xbd, 0xae, 0xb5, 0xaf, 0x3e, 0x9e, 0x94, 0x8b, 0x3c,
  0x40, 0xc9, 0x7f, 0xbe, 0xdb, 0x05, 0x93, 0x3c, 0x41, 0x8a, 0x0a, 0x3f,
  0xd6, 0x51, 0xc2, 0x3e, 0x2d, 0x12, 0x52, 0x3e, 0x25, 0x0d, 0x46, 0xbe,
  0xd6, 0xb5, 0xe8, 0x3e, 0x4b, 0xfe, 0x02, 0x3f, 0x05, 0x31, 0xe3, 0xbd,
  0xfd, 0xda, 0x66, 0xbe, 0x28, 0x6f, 0x21, 0x3f, 0x11, 0xc4, 0x26, 0x3e,
  0xd2, 0x7f, 0x8e, 0xbd, 0x36, 0x4a, 0xb6, 0x3e, 0xaf, 0x63, 0xa9, 0x3e,
  0x1e, 0xc4, 0xcf, 0x3d, 0xfa, 0xaf, 0x23, 0x3d, 0x71, 0x2b, 0x0c, 0x3f,
  0x6d, 0x89, 0x8d, 0x3e, 0x78, 0x58, 0x13, 0x3f, 0x2f, 0x18, 0x97, 0x3e,
  0x32, 0x05, 0x8c, 0x3e, 0x10, 0x92, 0x08, 0xbf, 0xc2, 0x7e, 0xeb, 0x3e,
  0x02, 0x39, 0xc2, 0x3e, 0x46, 0xdd, 0xf9, 0x3d, 0xeb, 0x74, 0x23, 0xbe,
  0xfa, 0x76, 0x6c, 0x3e, 0xec, 0x4e, 0x98, 0x3e, 0x88, 0xcf, 0x0b, 0xbd,
  0x68, 0x6c, 0xa4, 0x3d, 0x68, 0x15, 0xa9, 0x3d, 0xd7, 0x20, 0x60, 0x3d,
  0x31, 0xac, 0xd3, 0x3d, 0x21, 0xf2, 0x13, 0xbf, 0x09, 0x48, 0x0b, 0xbf,
  0xc7, 0x17, 0x56, 0x3e, 0x32, 0x23, 0x42, 0xbe, 0x7b, 0x7b, 0xda, 0x3e,
  0x97, 0x99, 0xea, 0x3d, 0x22, 0x79, 0xcf, 0x3e, 0x72, 0xed, 0x83, 0xbe,
  0x69, 0x94, 0x4b, 0x3f, 0xa5, 0x8f, 0x8c, 0x3d, 0xc1, 0x68, 0xb4, 0xbd,
  0x08, 0x7f, 0x9e, 0xbe, 0xfc, 0x28, 0xd8, 0xbe, 0x37, 0x08, 0xbe, 0xbe,
  0xce, 0x98, 0x1b, 0x3f, 0x98, 0x19, 0x71, 0x3e, 0xa1, 0x16, 0x27, 0xbe,
  0x50, 0x48, 0xdc, 0x3e, 0xbb, 0xd6, 0x70, 0x3e, 0x55, 0xe6, 0x13, 0x3e,
  0xef, 0x34, 0x8c, 0xbe, 0x3d, 0xdd, 0xc6, 0xbd, 0x99, 0x00, 0x68, 0x3d,
  0xbf, 0x0d, 0x5a, 0x3e, 0xe9, 0xd9, 0x22, 0x3f, 0x6d, 0xe5, 0x8b, 0x3d,
  0x58, 0x6d, 0x34, 0xbe, 0x6c, 0x63, 0x2d, 0x3e, 0xb0, 0xcf, 0xa6, 0xbd,
  0xe4, 0x0f, 0x97, 0xbe, 0xef, 0xbe, 0xae, 0x3e, 0xd5, 0x37, 0x80, 0x3e,
  0xea, 0xce, 0xb2, 0xbe, 0xb2, 0xc5, 0x41, 0xbf, 0xf4, 0x57, 0xa0, 0x3d,
  0x32, 0xb1, 0x25, 0x3d, 0xe2, 0x9a, 0x19, 0x3f, 0xf7, 0xf3, 0xb1, 0xbe,
  0x51, 0x37, 0x86, 0x3e, 0x06, 0xa6, 0x55, 0x3e, 0x7b, 0x2f, 0x02, 0xbe,
  0x8f, 0x89, 0x99, 0x3e, 0xbd, 0x36, 0x36, 0x3f, 0xd2, 0xa6, 0xf8, 0x3c,
  0x54, 0x26, 0xa7, 0x3e, 0xcd, 0x3b, 0x17, 0xbf, 0x74, 0x27, 0x35, 0x3f,
  0xef, 0x34, 0x08, 0xbf, 0x92, 0xf3, 0xaf, 0x3e, 0x9d, 0x29, 0x9f, 0x3e,
  0x6f, 0xdd, 0xde, 0x3e, 0xde, 0xf2, 0x3b, 0x3e, 0xa0, 0x9f, 0xe6, 0xbe,
  0xb6, 0x6b, 0x17, 0x3f, 0xe2, 0x6a, 0x48, 0xbe, 0x9c, 0xcd, 0xbc, 0x3e,
  0x69, 0x97, 0x81, 0x3c, 0xca, 0xe6, 0xdf, 0x3d, 0xd7, 0xe4, 0xa8, 0x3e,
  0xfa, 0x0d, 0x9a, 0x3e, 0x9b, 0x97, 0x0e, 0xbd, 0xab, 0x70, 0x46, 0xbe,
  0x96, 0x51, 0x15, 0x3e, 0xf1, 0x26, 0x17, 0x3e, 0x90, 0x1b, 0x9a, 0x3d,
  0x1e, 0xbc, 0x70, 0xbe, 0x52, 0x85, 0x23, 0x3e, 0xaf, 0x39, 0xb9, 0x3e,
  0xf2, 0x02, 0x32, 0x3d, 0x8d, 0x81, 0xd8, 0xbd, 0x45, 0x9e, 0xb5, 0x3d,
  0xa3, 0x0d, 0xa0, 0xbe, 0x7c, 0xd2, 0xc9, 0x3e, 0x0e, 0xf8, 0xc3, 0x3d,
  0x42, 0x0d, 0x51, 0xbd, 0x74, 0x90, 0x8f, 0xbe, 0x14, 0x44, 0xba, 0x3e,
  0x6f, 0x5e, 0x66, 0x3d, 0xec, 0x4c, 0x16, 0xbe, 0x85, 0xd7, 0xde, 0xbe,
  0xf4, 0xc4, 0x91, 0x3e, 0xe2, 0x3f, 0x6a, 0x3c, 0xe6, 0xe6, 0x43, 0xbe,
  0xe0, 0xe3, 0x44, 0xbe, 0x3c, 0x40, 0xa7, 0x3e, 0x2a, 0xe2, 0xe9, 0xbe,
  0x12, 0x8b, 0x65, 0xbc, 0x99, 0x91, 0x90, 0x3d, 0x01, 0x1f, 0x83, 0x3e,
  0xbb, 0x30, 0x97, 0x3e, 0x16, 0x5f, 0xa3, 0x3e, 0x41, 0x93, 0xcd, 0x3e,
  0x92, 0x38, 0x14, 0x3d, 0xb7, 0x68, 0xc1, 0x3d, 0x18, 0x45, 0xb3, 0x3d,
  0xf0, 0xad, 0x4d, 0x3c, 0xfa, 0x52, 0xbc, 0x3e, 0xbf, 0xd1, 0x25, 0xbf,
  0xc8, 0x4d, 0x02, 0x3f, 0x61, 0xeb, 0xb2, 0xbd, 0x5b, 0xaa, 0xe0, 0x3e,
  0xd6, 0xd6, 0xec, 0xbd, 0xfa, 0xe8, 0xe1, 0x3d, 0x19, 0x74, 0xcc, 0xbd,
  0x28, 0x07, 0x64, 0xbe, 0xaa, 0x4c, 0x78, 0x3e, 0xef, 0xf7, 0x20, 0x3d,
  0xf6, 0x62, 0xa1, 0x3e, 0x20, 0x96, 0x53, 0x3d, 0x32, 0x71, 0x36, 0x3e,
  0xec, 0xba, 0x8c, 0x3e, 0xae, 0x91, 0x0d, 0x3f, 0x59, 0x24, 0xb1, 0xbe,
  0x66, 0x99, 0x4b, 0x3d, 0x1e, 0xb5, 0xb6, 0xbe, 0x3a, 0xba, 0x36, 0x3f,
  0x80, 0xa9, 0x90, 0xbe, 0x93, 0x66, 0x93, 0xbe, 0x82, 0x65, 0x9a, 0xbe,
  0x45, 0x51, 0x39, 0x3f, 0xd7, 0xe2, 0xdc, 0xbd, 0x16, 0x33, 0x8e, 0xbe,
  0xe7, 0x2b, 0x36, 0x3e, 0x02, 0xfb, 0xff, 0xff, 0x10, 0x00, 0x00, 0x00,
  0x09, 0x00, 0x00, 0x00, 0x14, 0x00, 0x00, 0x00, 0x30, 0x00, 0x00, 0x00,
  0x02, 0x00, 0x00, 0x00, 0x05, 0x00, 0x00, 0x00, 0x24, 0x00, 0x00, 0x00,
  0x1b, 0x00, 0x00, 0x00, 0x73, 0x65, 0x71, 0x75, 0x65, 0x6e, 0x74, 0x69,
  0x61, 0x6c, 0x5f, 0x36, 0x2f, 0x64, 0x65, 0x6e, 0x73, 0x65, 0x5f, 0x38,
  0x2f, 0x4d, 0x61, 0x74, 0x4d, 0x75, 0x6c, 0x00, 0x78, 0xfa, 0xff, 0xff,
  0x82, 0xfb, 0xff, 0xff, 0x04, 0x00, 0x00, 0x00, 0x10, 0x00, 0x00, 0x00,
  0x8b, 0x80, 0xcc, 0xbf, 0xa1, 0xcc, 0x5f, 0x40, 0x0f, 0x63, 0x8e, 0x3e,
  0x25, 0x7c, 0xa1, 0xbf, 0x62, 0xfb, 0xff, 0xff, 0x10, 0x00, 0x00, 0x00,
  0x08, 0x00, 0x00, 0x00, 0x10, 0x00, 0x00, 0x00, 0xb4, 0x00, 0x00, 0x00,
  0x01, 0x00, 0x00, 0x00, 0x04, 0x00, 0x00, 0x00, 0xa0, 0x00, 0x00, 0x00,
  0x73, 0x65, 0x71, 0x75, 0x65, 0x6e, 0x74, 0x69, 0x61, 0x6c, 0x5f, 0x36,
  0x2f, 0x61, 0x63, 0x74, 0x69, 0x76, 0x61, 0x74, 0x69, 0x6f, 0x6e, 0x5f,
  0x32, 0x32, 0x2f, 0x52, 0x65, 0x6c, 0x75, 0x3b, 0x73, 0x65, 0x71, 0x75,
  0x65, 0x6e, 0x74, 0x69, 0x61, 0x6c, 0x5f, 0x36, 0x2f, 0x62, 0x61, 0x74,
  0x63, 0x68, 0x5f, 0x6e, 0x6f, 0x72, 0x6d, 0x61, 0x6c, 0x69, 0x7a, 0x61,
  0x74, 0x69, 0x6f, 0x6e, 0x5f, 0x32, 0x32, 0x2f, 0x46, 0x75, 0x73, 0x65,
  0x64, 0x42, 0x61, 0x74, 0x63, 0x68, 0x4e, 0x6f, 0x72, 0x6d, 0x56, 0x33,
  0x3b, 0x63, 0x6f, 0x6e, 0x76, 0x32, 0x64, 0x5f, 0x32, 0x32, 0x2f, 0x62,
  0x69, 0x61, 0x73, 0x3b, 0x73, 0x65, 0x71, 0x75, 0x65, 0x6e, 0x74, 0x69,
  0x61, 0x6c, 0x5f, 0x36, 0x2f, 0x63, 0x6f, 0x6e, 0x76, 0x32, 0x64, 0x5f,
  0x32, 0x32, 0x2f, 0x42, 0x69, 0x61, 0x73, 0x41, 0x64, 0x64, 0x3b, 0x73,
  0x65, 0x71, 0x75, 0x65, 0x6e, 0x74, 0x69, 0x61, 0x6c, 0x5f, 0x36, 0x2f,
  0x63, 0x6f, 0x6e, 0x76, 0x32, 0x64, 0x5f, 0x32, 0x32, 0x2f, 0x43, 0x6f,
  0x6e, 0x76, 0x32, 0x44, 0x00, 0x00, 0x00, 0x00, 0x5c, 0xfb, 0xff, 0xff,
  0x66, 0xfc, 0xff, 0xff, 0x04, 0x00, 0x00, 0x00, 0x10, 0x00, 0x00, 0x00,
  0x07, 0x9e, 0x67, 0xbf, 0x6a, 0x05, 0xe3, 0x3e, 0x22, 0x05, 0x9c, 0xbf,
  0x52, 0x96, 0x61, 0x3f, 0x46, 0xfc, 0xff, 0xff, 0x10, 0x00, 0x00, 0x00,
  0x07, 0x00, 0x00, 0x00, 0x10, 0x00, 0x00, 0x00, 0xd0, 0x00, 0x00, 0x00,
  0x01, 0x00, 0x00, 0x00, 0x04, 0x00, 0x00, 0x00, 0xbe, 0x00, 0x00, 0x00,
  0x73, 0x65, 0x71, 0x75, 0x65, 0x6e, 0x74, 0x69, 0x61, 0x6c, 0x5f, 0x36,
  0x2f, 0x61, 0x63, 0x74, 0x69, 0x76, 0x61, 0x74, 0x69, 0x6f, 0x6e, 0x5f,
  0x32, 0x31, 0x2f, 0x52, 0x65, 0x6c, 0x75, 0x3b, 0x73, 0x65, 0x71, 0x75,
  0x65, 0x6e, 0x74, 0x69, 0x61, 0x6c, 0x5f, 0x36, 0x2f, 0x62, 0x61, 0x74,
  0x63, 0x68, 0x5f, 0x6e, 0x6f, 0x72, 0x6d, 0x61, 0x6c, 0x69, 0x7a, 0x61,
  0x74, 0x69, 0x6f, 0x6e, 0x5f, 0x32, 0x31, 0x2f, 0x46, 0x75, 0x73, 0x65,
  0x64, 0x42, 0x61, 0x74, 0x63, 0x68, 0x4e, 0x6f, 0x72, 0x6d, 0x56, 0x33,
  0x3b, 0x63, 0x6f, 0x6e, 0x76, 0x32, 0x64, 0x5f, 0x32, 0x31, 0x2f, 0x62,
  0x69, 0x61, 0x73, 0x3b, 0x73, 0x65, 0x71, 0x75, 0x65, 0x6e, 0x74, 0x69,
  0x61, 0x6c, 0x5f, 0x36, 0x2f, 0x63, 0x6f, 0x6e, 0x76, 0x32, 0x64, 0x5f,
  0x32, 0x31, 0x2f, 0x42, 0x69, 0x61, 0x73, 0x41, 0x64, 0x64, 0x3b, 0x73,
  0x65, 0x71, 0x75, 0x65, 0x6e, 0x74, 0x69, 0x61, 0x6c, 0x5f, 0x36, 0x2f,
  0x63, 0x6f, 0x6e, 0x76, 0x32, 0x64, 0x5f, 0x32, 0x32, 0x2f, 0x43, 0x6f,
  0x6e, 0x76, 0x32, 0x44, 0x3b, 0x73, 0x65, 0x71, 0x75, 0x65, 0x6e, 0x74,
  0x69, 0x61, 0x6c, 0x5f, 0x36, 0x2f, 0x63, 0x6f, 0x6e, 0x76, 0x32, 0x64,
  0x5f, 0x32, 0x31, 0x2f, 0x43, 0x6f, 0x6e, 0x76, 0x32, 0x44, 0x00, 0x00,
  0x5c, 0xfc, 0xff, 0xff, 0x66, 0xfd, 0xff, 0xff, 0x04, 0x00, 0x00, 0x00,
  0x08, 0x00, 0x00, 0x00, 0xb1, 0x90, 0x18, 0xbe, 0x70, 0x4c, 0xc1, 0xbf,
  0x3e, 0xfd, 0xff, 0xff, 0x10, 0x00, 0x00, 0x00, 0x06, 0x00, 0x00, 0x00,
  0x10, 0x00, 0x00, 0x00, 0xb4, 0x00, 0x00, 0x00, 0x01, 0x00, 0x00, 0x00,
  0x02, 0x00, 0x00, 0x00, 0xa0, 0x00, 0x00, 0x00, 0x73, 0x65, 0x71, 0x75,
  0x65, 0x6e, 0x74, 0x69, 0x61, 0x6c, 0x5f, 0x36, 0x2f, 0x61, 0x63, 0x74,
  0x69, 0x76, 0x61, 0x74, 0x69, 0x6f, 0x6e, 0x5f, 0x32, 0x30, 0x2f, 0x52,
  0x65, 0x6c, 0x75, 0x3b, 0x73, 0x65, 0x71, 0x75, 0x65, 0x6e, 0x74, 0x69,
  0x61, 0x6c, 0x5f, 0x36, 0x2f, 0x62, 0x61, 0x74, 0x63, 0x68, 0x5f, 0x6e,
  0x6f, 0x72, 0x6d, 0x61, 0x6c, 0x69, 0x7a, 0x61, 0x74, 0x69, 0x6f, 0x6e,
  0x5f, 0x32, 0x30, 0x2f, 0x46, 0x75, 0x73, 0x65, 0x64, 0x42, 0x61, 0x74,
  0x63, 0x68, 0x4e, 0x6f, 0x72, 0x6d, 0x56, 0x33, 0x3b, 0x63, 0x6f, 0x6e,
  0x76, 0x32, 0x64, 0x5f, 0x32, 0x30, 0x2f, 0x62, 0x69, 0x61, 0x73, 0x3b,
  0x73, 0x65, 0x71, 0x75, 0x65, 0x6e, 0x74, 0x69, 0x61, 0x6c, 0x5f, 0x36,
  0x2f, 0x63, 0x6f, 0x6e, 0x76, 0x32, 0x64, 0x5f, 0x32, 0x30, 0x2f, 0x42,
  0x69, 0x61, 0x73, 0x41, 0x64, 0x64, 0x3b, 0x73, 0x65, 0x71, 0x75, 0x65,
  0x6e, 0x74, 0x69, 0x61, 0x6c, 0x5f, 0x36, 0x2f, 0x63, 0x6f, 0x6e, 0x76,
  0x32, 0x64, 0x5f, 0x32, 0x30, 0x2f, 0x43, 0x6f, 0x6e, 0x76, 0x32, 0x44,
  0x00, 0x00, 0x00, 0x00, 0x38, 0xfd, 0xff, 0xff, 0x42, 0xfe, 0xff, 0xff,
  0x04, 0x00, 0x00, 0x00, 0x08, 0x00, 0x00, 0x00, 0xd9, 0x49, 0x5c, 0x3f,
  0x5e, 0x87, 0x65, 0x3f, 0x1a, 0xfe, 0xff, 0xff, 0x10, 0x00, 0x00, 0x00,
  0x05, 0x00, 0x00, 0x00, 0x10, 0x00, 0x00, 0x00, 0xd0, 0x00, 0x00, 0x00,
  0x01, 0x00, 0x00, 0x00, 0x02, 0x00, 0x00, 0x00, 0xbe, 0x00, 0x00, 0x00,
  0x73, 0x65, 0x71, 0x75, 0x65, 0x6e, 0x74, 0x69, 0x61, 0x6c, 0x5f, 0x36,
  0x2f, 0x61, 0x63, 0x74, 0x69, 0x76, 0x61, 0x74, 0x69, 0x6f, 0x6e, 0x5f,
  0x31, 0x39, 0x2f, 0x52, 0x65, 0x6c, 0x75, 0x3b, 0x73, 0x65, 0x71, 0x75,
  0x65, 0x6e, 0x74, 0x69, 0x61, 0x6c, 0x5f, 0x36, 0x2f, 0x62, 0x61, 0x74,
  0x63, 0x68, 0x5f, 0x6e, 0x6f, 0x72, 0x6d, 0x61, 0x6c, 0x69, 0x7a, 0x61,
  0x74, 0x69, 0x6f, 0x6e, 0x5f, 0x31, 0x39, 0x2f, 0x46, 0x75, 0x73, 0x65,
  0x64, 0x42, 0x61, 0x74, 0x63, 0x68, 0x4e, 0x6f, 0x72, 0x6d, 0x56, 0x33,
  0x3b, 0x63, 0x6f, 0x6e, 0x76, 0x32, 0x64, 0x5f, 0x31, 0x39, 0x2f, 0x62,
  0x69, 0x61, 0x73, 0x3b, 0x73, 0x65, 0x71, 0x75, 0x65, 0x6e, 0x74, 0x69,
  0x61, 0x6c, 0x5f, 0x36, 0x2f, 0x63, 0x6f, 0x6e, 0x76, 0x32, 0x64, 0x5f,
  0x31, 0x39, 0x2f, 0x42, 0x69, 0x61, 0x73, 0x41, 0x64, 0x64, 0x3b, 0x73,
  0x65, 0x71, 0x75, 0x65, 0x6e, 0x74, 0x69, 0x61, 0x6c, 0x5f, 0x36, 0x2f,
  0x63, 0x6f, 0x6e, 0x76, 0x32, 0x64, 0x5f, 0x32, 0x30, 0x2f, 0x43, 0x6f,
  0x6e, 0x76, 0x32, 0x44, 0x3b, 0x73, 0x65, 0x71, 0x75, 0x65, 0x6e, 0x74,
  0x69, 0x61, 0x6c, 0x5f, 0x36, 0x2f, 0x63, 0x6f, 0x6e, 0x76, 0x32, 0x64,
  0x5f, 0x31, 0x39, 0x2f, 0x43, 0x6f, 0x6e, 0x76, 0x32, 0x44, 0x00, 0x00,
  0x30, 0xfe, 0xff, 0xff, 0x3a, 0xff, 0xff, 0xff, 0x04, 0x00, 0x00, 0x00,
  0x08, 0x00, 0x00, 0x00, 0xff, 0xff, 0xff, 0xff, 0x24, 0x00, 0x00, 0x00,
  0x00, 0x00, 0x0e, 0x00, 0x18, 0x00, 0x08, 0x00, 0x07, 0x00, 0x0c, 0x00,
  0x10, 0x00, 0x14, 0x00, 0x0e, 0x00, 0x00, 0x00, 0x00, 0x00, 0x00, 0x02,
  0x10, 0x00, 0x00, 0x00, 0x04, 0x00, 0x00, 0x00, 0x10, 0x00, 0x00, 0x00,
  0x30, 0x00, 0x00, 0x00, 0x01, 0x00, 0x00, 0x00, 0x02, 0x00, 0x00, 0x00,
  0x1c, 0x00, 0x00, 0x00, 0x73, 0x65, 0x71, 0x75, 0x65, 0x6e, 0x74, 0x69,
  0x61, 0x6c, 0x5f, 0x36, 0x2f, 0x66, 0x6c, 0x61, 0x74, 0x74, 0x65, 0x6e,
  0x5f, 0x34, 0x2f, 0x43, 0x6f, 0x6e, 0x73, 0x74, 0x00, 0x00, 0x00, 0x00,
  0x9c, 0xfe, 0xff, 0xff, 0xa6, 0xff, 0xff, 0xff, 0x04, 0x00, 0x00, 0x00,
  0x14, 0x00, 0x00, 0x00, 0x76, 0x56, 0x90, 0x3e, 0x71, 0x3c, 0x64, 0x3e,
  0x67, 0x50, 0x05, 0x3e, 0x01, 0xf2, 0x38, 0x3c, 0x58, 0xb3, 0x58, 0x3d,
  0x8a, 0xff, 0xff, 0xff, 0x10, 0x00, 0x00, 0x00, 0x03, 0x00, 0x00, 0x00,
  0x10, 0x00, 0x00, 0x00, 0x24, 0x00, 0x00, 0x00, 0x01, 0x00, 0x00, 0x00,
  0x05, 0x00, 0x00, 0x00, 0x0c, 0x00, 0x00, 0x00, 0x64, 0x65, 0x6e, 0x73,
  0x65, 0x5f, 0x38, 0x2f, 0x62, 0x69, 0x61, 0x73, 0x00, 0x00, 0x00, 0x00,
  0x04, 0x00, 0x06, 0x00, 0x04, 0x00, 0x00, 0x00, 0x00, 0x00, 0x06, 0x00,
  0x08, 0x00, 0x04, 0x00, 0x06, 0x00, 0x00, 0x00, 0x04, 0x00, 0x00, 0x00,
  0x28, 0x00, 0x00, 0x00, 0x90, 0x86, 0x54, 0xbe, 0xf6, 0x3b, 0xa6, 0x3e,
  0x9a, 0x61, 0x98, 0x3e, 0x94, 0x6b, 0x2e, 0x3e, 0x04, 0x96, 0x33, 0x3d,
  0x39, 0x4d, 0x54, 0xbd, 0x4f, 0xa6, 0x5e, 0xbe, 0xb9, 0x90, 0x0a, 0x3e,
  0x71, 0x98, 0xc0, 0xbd, 0x64, 0x64, 0xba, 0xbe, 0x00, 0x00, 0x0e, 0x00,
  0x14, 0x00, 0x04, 0x00, 0x00, 0x00, 0x08, 0x00, 0x0c, 0x00, 0x10, 0x00,
  0x0e, 0x00, 0x00, 0x00, 0x10, 0x00, 0x00, 0x00, 0x02, 0x00, 0x00, 0x00,
  0x10, 0x00, 0x00, 0x00, 0x20, 0x00, 0x00, 0x00, 0x01, 0x00, 0x00, 0x00,
  0x0a, 0x00, 0x00, 0x00, 0x0c, 0x00, 0x00, 0x00, 0x64, 0x65, 0x6e, 0x73,
  0x65, 0x5f, 0x39, 0x2f, 0x62, 0x69, 0x61, 0x73, 0x00, 0x00, 0x00, 0x00,
  0x74, 0xff, 0xff, 0xff, 0x14, 0x00, 0x18, 0x00, 0x04, 0x00, 0x00, 0x00,
  0x08, 0x00, 0x0c, 0x00, 0x10, 0x00, 0x00, 0x00, 0x00, 0x00, 0x14, 0x00,
  0x14, 0x00, 0x00, 0x00, 0x14, 0x00, 0x00, 0x00, 0x01, 0x00, 0x00, 0x00,
  0x20, 0x00, 0x00, 0x00, 0x60, 0x00, 0x00, 0x00, 0x48, 0x00, 0x00, 0x00,
  0x04, 0x00, 0x00, 0x00, 0x01, 0x00, 0x00, 0x00, 0x1c, 0x00, 0x00, 0x00,
  0x1c, 0x00, 0x00, 0x00, 0x01, 0x00, 0x00, 0x00, 0x2a, 0x00, 0x00, 0x00,
  0x73, 0x65, 0x72, 0x76, 0x69, 0x6e, 0x67, 0x5f, 0x64, 0x65, 0x66, 0x61,
  0x75, 0x6c, 0x74, 0x5f, 0x64, 0x65, 0x70, 0x74, 0x68, 0x77, 0x69, 0x73,
  0x65, 0x5f, 0x63, 0x6f, 0x6e, 0x76, 0x32, 0x64, 0x5f, 0x34, 0x5f, 0x69,
  0x6e, 0x70, 0x75, 0x74, 0x3a, 0x30, 0x00, 0x00, 0x04, 0x00, 0x00, 0x00,
  0xff, 0xff, 0xff, 0xff, 0x1c, 0x00, 0x00, 0x00, 0x1c, 0x00, 0x00, 0x00,
  0x01, 0x00, 0x00, 0x00, 0xfc, 0xff, 0xff, 0xff, 0x04, 0x00, 0x04, 0x00,
  0x04, 0x00, 0x00, 0x00
};
